{
  "version": "1.0",
  "truncation": null,
  "padding": null,
  "added_tokens": [
    {
      "id": 0,
      "content": "<|endoftext|>",
      "single_word": false,
      "lstrip": false,
      "rstrip": false,
      "normalized": false,
      "special": true
    },
    {
      "id": 1,
      "content": "<|padding|>",
      "single_word": false,
      "lstrip": false,
      "rstrip": false,
      "normalized": false,
      "special": true
    }
  ],
  "normalizer": null,
  "pre_tokenizer": {
    "type": "ByteLevel",
    "add_prefix_space": true,
    "trim_offsets": true,
    "use_regex": true
  },
  "post_processor": {
    "type": "ByteLevel",
    "add_prefix_space": true,
    "trim_offsets": true,
    "use_regex": true
  },
  "decoder": {
    "type": "ByteLevel",
    "add_prefix_space": true,
    "trim_offsets": true,
    "use_regex": true
  },
  "model": {
    "type": "BPE",
    "dropout": null,
    "unk_token": null,
    "continuing_subword_prefix": null,
    "end_of_word_suffix": null,
    "fuse_unk": false,
    "byte_fallback": false,
    "ignore_merges": false,
    "vocab": {
      "<|endoftext|>": 0,
      "<|padding|>": 1,
      "!": 2,
      "\"": 3,
      "#": 4,
      "$": 5,
      "%": 6,
      "&": 7,
      "'": 8,
      "(": 9,
      ")": 10,
      "*": 11,
      "+": 12,
      ",": 13,
      "-": 14,
      ".": 15,
      "/": 16,
      "0": 17,
      "1": 18,
      "2": 19,
      "3": 20,
      "4": 21,
      "5": 22,
      "6": 23,
      "7": 24,
      "8": 25,
      "9": 26,
      ":": 27,
      ";": 28,
      "<": 29,
      "=": 30,
      ">": 31,
      "?": 32,
      "@": 33,
      "A": 34,
      "B": 35,
      "C": 36,
      "D": 37,
      "E": 38,
      "F": 39,
      "G": 40,
      "H": 41,
      "I": 42,
      "J": 43,
      "K": 44,
      "L": 45,
      "M": 46,
      "N": 47,
      "O": 48,
      "P": 49,
      "Q": 50,
      "R": 51,
      "S": 52,
      "T": 53,
      "U": 54,
      "V": 55,
      "W": 56,
      "X": 57,
      "Y": 58,
      "Z": 59,
      "[": 60,
      "\\": 61,
      "]": 62,
      "^": 63,
      "_": 64,
      "`": 65,
      "a": 66,
      "b": 67,
      "c": 68,
      "d": 69,
      "e": 70,
      "f": 71,
      "g": 72,
      "h": 73,
      "i": 74,
      "j": 75,
      "k": 76,
      "l": 77,
      "m": 78,
      "n": 79,
      "o": 80,
      "p": 81,
      "q": 82,
      "r": 83,
      "s": 84,
      "t": 85,
      "u": 86,
      "v": 87,
      "w": 88,
      "x": 89,
      "y": 90,
      "z": 91,
      "{": 92,
      "|": 93,
      "}": 94,
      "~": 95,
      "Ċ": 96,
      "č": 97,
      "Ġ": 98,
      "xe": 99,
      "xa": 100,
      "81": 101,
      "xb": 102,
      "82": 103,
      "83": 104,
      "80": 105,
      "xae": 106,
      "xab": 107,
      "xbc": 108,
      "88": 109,
      "97": 110,
      "xaf": 111,
      "89": 112,
      "xaa": 113,
      "xbb": 114,
      "84": 115,
      "xba": 116,
      "92": 117,
      "xad": 118,
      "95": 119,
      "99": 120,
      "xbd": 121,
      "93": 122,
      "xbe": 123,
      "96": 124,
      "90": 125,
      "85": 126,
      "94": 127,
      "86": 128,
      "xac": 129,
      "xbf": 130,
      "87": 131,
      "AR": 132,
      "91": 133,
      "xef": 134,
      "_\\": 135,
      "NE": 136,
      "98": 137,
      "ART": 138,
      "ST": 139,
      "START": 140,
      "LI": 141,
      "NEW": 142,
      "LINE": 143,
      "NEWLINE": 144,
      "RA": 145,
      "AG": 146,
      "PH": 147,
      "PAR": 148,
      "RAPH": 149,
      "PARAG": 150,
      "PARAGRAPH": 151,
      "20": 152,
      "ON": 153,
      "SE": 154,
      "TI": 155,
      "TION": 156,
      "CTION": 157,
      "SECTION": 158,
      "Ġ\\": 159,
      "811": 160,
      "IC": 161,
      "201": 162,
      "Ġb": 163,
      "LE": 164,
      "200": 165,
      "ICLE": 166,
      "čĊ": 167,
      "ARTICLE": 168,
      "'\\": 169,
      "881": 170,
      "821": 171,
      "00": 172,
      "41": 173,
      "882": 174,
      ")\\": 175,
      "xc": 176,
      "Ġ(": 177,
      "er": 178,
      "19": 179,
      "10": 180,
      "xd": 181,
      "in": 182,
      "Ġ-": 183,
      "on": 184,
      "an": 185,
      "12": 186,
      "en": 187,
      "11": 188,
      "43": 189,
      "81200": 190,
      "44": 191,
      "or": 192,
      "ar": 193,
      "81201": 194,
      "15": 195,
      "45": 196,
      "al": 197,
      "883": 198,
      "at": 199,
      "812": 200,
      "47": 201,
      "199": 202,
      "ĠS": 203,
      "42": 204,
      "46": 205,
      "ĠĠ": 206,
      "82200": 207,
      "16": 208,
      "17": 209,
      "es": 210,
      "82201": 211,
      "13": 212,
      "197": 213,
      "49": 214,
      "48": 215,
      "000": 216,
      "ĠC": 217,
      "30": 218,
      "ic": 219,
      "410": 220,
      "is": 221,
      "it": 222,
      "50": 223,
      "(\\": 224,
      "412": 225,
      "Ġ(\\": 226,
      "196": 227,
      "he": 228,
      "8119": 229,
      "ĠM": 230,
      "194": 231,
      "ĠA": 232,
      "411": 233,
      "813": 234,
      "km": 235,
      "14": 236,
      "le": 237,
      "ĠT": 238,
      "\"\\": 239,
      "%\\": 240,
      "ion": 241,
      "st": 242,
      "195": 243,
      "ĠB": 244,
      "re": 245,
      "18": 246,
      "8815": 247,
      "ĠP": 248,
      "el": 249,
      "22": 250,
      "!\\": 251,
      "8219": 252,
      "40": 253,
      "ro": 254,
      "25": 255,
      "ĠF": 256,
      "8820": 257,
      "100": 258,
      "ac": 259,
      "8816": 260,
      "72": 261,
      "ol": 262,
      "193": 263,
      "il": 264,
      "et": 265,
      "ĠR": 266,
      "ou": 267,
      "ĠD": 268,
      "FC": 269,
      "21": 270,
      "am": 271,
      "81199": 272,
      "ĠL": 273,
      "81197": 274,
      "23": 275,
      "891": 276,
      "2010": 277,
      "60": 278,
      "ĠG": 279,
      "om": 280,
      "ch": 281,
      "885": 282,
      "Ġt": 283,
      "-\\": 284,
      "as": 285,
      "of": 286,
      "8817": 287,
      "887": 288,
      "2012": 289,
      "2011": 290,
      "2009": 291,
      "884": 292,
      "2008": 293,
      "2014": 294,
      "de": 295,
      "2007": 296,
      "ing": 297,
      "815": 298,
      "2013": 299,
      "814": 300,
      "886": 301,
      "893": 302,
      "62": 303,
      "81196": 304,
      "822": 305,
      "2015": 306,
      "ĠH": 307,
      "32": 308,
      "8819": 309,
      "192": 310,
      "2016": 311,
      "mm": 312,
      "ĠI": 313,
      "8810": 314,
      "2006": 315,
      "82199": 316,
      "us": 317,
      "8811": 318,
      "ĠE": 319,
      "ĠW": 320,
      "81194": 321,
      "xce": 322,
      "35": 323,
      "Ġof": 324,
      "and": 325,
      "2017": 326,
      "888": 327,
      "33": 328,
      "ĠĠĠĠ": 329,
      "24": 330,
      "un": 331,
      "2000": 332,
      "73": 333,
      "892": 334,
      "75": 335,
      "82197": 336,
      "894": 337,
      "__": 338,
      "816": 339,
      "81195": 340,
      "71": 341,
      "889": 342,
      "ed": 343,
      "ra": 344,
      "ig": 345,
      "61": 346,
      "ĠN": 347,
      ".\\": 348,
      "ent": 349,
      "Ġm": 350,
      "63": 351,
      "8825": 352,
      "8830": 353,
      "CD": 354,
      "ation": 355,
      "8812": 356,
      "FA": 357,
      "2005": 358,
      "2018": 359,
      "70": 360,
      "191": 361,
      "8814": 362,
      "/\\": 363,
      "ot": 364,
      "cm": 365,
      "BS": 366,
      "ĠO": 367,
      "8813": 368,
      "8828": 369,
      "823": 370,
      "ow": 371,
      "ter": 372,
      "ur": 373,
      "82196": 374,
      "82194": 375,
      "8821": 376,
      "II": 377,
      "8818": 378,
      "81193": 379,
      "8823": 380,
      "Ġ1": 381,
      "65": 382,
      "NA": 383,
      "31": 384,
      "2004": 385,
      "8826": 386,
      "817": 387,
      "8829": 388,
      "8827": 389,
      "895": 390,
      "ri": 391,
      "27": 392,
      "ad": 393,
      "8822": 394,
      "ay": 395,
      "8824": 396,
      "26": 397,
      "8831": 398,
      "ER": 399,
      "Ġs": 400,
      "NH": 401,
      "8110": 402,
      "AN": 403,
      "ir": 404,
      "ut": 405,
      "Ġd": 406,
      "825": 407,
      "82195": 408,
      "iv": 409,
      "ĠV": 410,
      "2003": 411,
      "SS": 412,
      "190": 413,
      "Ġf": 414,
      "896": 415,
      "34": 416,
      "VD": 417,
      "um": 418,
      "os": 419,
      "ag": 420,
      "ĠJ": 421,
      "ct": 422,
      "500": 423,
      "81192": 424,
      "th": 425,
      "NHK": 426,
      "818": 427,
      "im": 428,
      "Ġthe": 429,
      "BC": 430,
      "AT": 431,
      "841": 432,
      "819": 433,
      "82193": 434,
      "2002": 435,
      "JR": 436,
      "897": 437,
      "64": 438,
      "em": 439,
      "The": 440,
      "2001": 441,
      "ap": 442,
      "36": 443,
      "CM": 444,
      "DVD": 445,
      "898": 446,
      "74": 447,
      "2019": 448,
      "88200": 449,
      "01": 450,
      "Ġc": 451,
      "ĠK": 452,
      "76": 453,
      "824": 454,
      "28": 455,
      "BA": 456,
      "899": 457,
      "Ġp": 458,
      "ia": 459,
      "ul": 460,
      "AA": 461,
      "1990": 462,
      "29": 463,
      "oc": 464,
      "55": 465,
      "82192": 466,
      "id": 467,
      "37": 468,
      "SA": 469,
      "nd": 470,
      "od": 471,
      "KO": 472,
      "8910": 473,
      "op": 474,
      "ĠU": 475,
      "1980": 476,
      "38": 477,
      "ers": 478,
      "ce": 479,
      "AC": 480,
      "og": 481,
      "8112": 482,
      "ĠSt": 483,
      "IN": 484,
      "IS": 485,
      "81191": 486,
      "TO": 487,
      "77": 488,
      "av": 489,
      "ov": 490,
      "kg": 491,
      "Ġkm": 492,
      "842": 493,
      "Ġ2": 494,
      "921": 495,
      "OS": 496,
      "1999": 497,
      "02": 498,
      "82191": 499,
      "1970": 500,
      "8912": 501,
      "ie": 502,
      "OR": 503,
      "39": 504,
      "ab": 505,
      "Ġin": 506,
      "800": 507,
      "300": 508,
      "812010": 509,
      "812006": 510,
      "TV": 511,
      "812008": 512,
      "812009": 513,
      "827": 514,
      "812007": 515,
      "826": 516,
      "Ġ_": 517,
      "ard": 518,
      "ak": 519,
      "922": 520,
      "ub": 521,
      "St": 522,
      "66": 523,
      "ist": 524,
      "PC": 525,
      "ind": 526,
      "AM": 527,
      "828": 528,
      "&\\": 529,
      "81190": 530,
      "51": 531,
      "PS": 532,
      "812011": 533,
      "1998": 534,
      "ill": 535,
      "8210": 536,
      "ht": 537,
      "RO": 538,
      "ell": 539,
      "est": 540,
      "Ġ3": 541,
      "8111": 542,
      "1996": 543,
      "1997": 544,
      "ine": 545,
      "52": 546,
      "8117": 547,
      "AP": 548,
      "812012": 549,
      "xaeM": 550,
      "Ġand": 551,
      "1995": 552,
      "8911": 553,
      "187": 554,
      "ess": 555,
      "Ġv": 556,
      "8116": 557,
      "RE": 558,
      "Ġ/": 559,
      "829": 560,
      "HE": 561,
      "ne": 562,
      "812005": 563,
      "843": 564,
      "Ġl": 565,
      "AS": 566,
      "ge": 567,
      "ĠIn": 568,
      "400": 569,
      "Ġde": 570,
      "GP": 571,
      "812014": 572,
      "822010": 573,
      "ec": 574,
      "VE": 575,
      "UE": 576,
      "1994": 577,
      "1960": 578,
      "SC": 579,
      "TBS": 580,
      "54": 581,
      "1992": 582,
      "if": 583,
      "8120": 584,
      "ph": 585,
      "822007": 586,
      "1993": 587,
      "822009": 588,
      "812013": 589,
      "53": 590,
      "ID": 591,
      "822008": 592,
      "US": 593,
      "ob": 594,
      "cM": 595,
      "xcf": 596,
      "eb": 597,
      "8115": 598,
      "812000": 599,
      "186": 600,
      "67": 601,
      "822006": 602,
      "1989": 603,
      "810": 604,
      "IT": 605,
      "ant": 606,
      "58": 607,
      "cS": 608,
      "1991": 609,
      "1945": 610,
      "all": 611,
      "ue": 612,
      "Ġw": 613,
      "812015": 614,
      "78": 615,
      "845": 616,
      "ows": 617,
      "8212": 618,
      "ud": 619,
      "822012": 620,
      "ight": 621,
      "Ġn": 622,
      "822011": 623,
      "IP": 624,
      "56": 625,
      "EC": 626,
      "AL": 627,
      "82190": 628,
      "Ġ\"": 629,
      "812004": 630,
      "OM": 631,
      "ip": 632,
      "NT": 633,
      "ity": 634,
      "AD": 635,
      "8217": 636,
      "art": 637,
      "150": 638,
      "Ġ6": 639,
      "io": 640,
      "up": 641,
      "822013": 642,
      "812016": 643,
      "03": 644,
      "ev": 645,
      "923": 646,
      "1985": 647,
      "ok": 648,
      "ran": 649,
      "8211": 650,
      "ate": 651,
      "ort": 652,
      "822005": 653,
      "cC": 654,
      "indows": 655,
      "ĠCh": 656,
      "ĠY": 657,
      "1988": 658,
      "ik": 659,
      "Ġa": 660,
      "SP": 661,
      "1987": 662,
      "822014": 663,
      "57": 664,
      "1950": 665,
      "xafA": 666,
      "our": 667,
      "ew": 668,
      "1986": 669,
      "812003": 670,
      "822015": 671,
      "xaeC": 672,
      "ha": 673,
      "68": 674,
      "OL": 675,
      "OU": 676,
      "ber": 677,
      "88197": 678,
      "Ġ=": 679,
      "812017": 680,
      "Ġ4": 681,
      "cT": 682,
      "cD": 683,
      "ord": 684,
      "cB": 685,
      "SF": 686,
      "79": 687,
      "1984": 688,
      "844": 689,
      "811990": 690,
      "ĠĠĠĠĠĠĠĠ": 691,
      "Ġg": 692,
      "ast": 693,
      "59": 694,
      "ive": 695,
      "cA": 696,
      "ian": 697,
      "!!\\": 698,
      "IFA": 699,
      "se": 700,
      "UEFA": 701,
      "69": 702,
      ":\\": 703,
      "ff": 704,
      "812002": 705,
      "OC": 706,
      "In": 707,
      "812001": 708,
      "822004": 709,
      "SU": 710,
      "ry": 711,
      "Windows": 712,
      "820": 713,
      "1000": 714,
      "te": 715,
      "cc": 716,
      "846": 717,
      "88186": 718,
      "Ġfor": 719,
      "\\'": 720,
      "1979": 721,
      "1982": 722,
      "BO": 723,
      "WA": 724,
      "875": 725,
      "ain": 726,
      "FM": 727,
      "xafM": 728,
      "IM": 729,
      "xaeA": 730,
      "822017": 731,
      "BM": 732,
      "822016": 733,
      "1973": 734,
      "1978": 735,
      "EN": 736,
      "1968": 737,
      "812018": 738,
      "?\\": 739,
      "PG": 740,
      "1981": 741,
      "1975": 742,
      "ep": 743,
      "811970": 744,
      "one": 745,
      "TA": 746,
      "872": 747,
      "qu": 748,
      "88199": 749,
      "1983": 750,
      "ĠX": 751,
      "ack": 752,
      "811980": 753,
      "1972": 754,
      "8118": 755,
      "185": 756,
      "1969": 757,
      "1974": 758,
      "'s": 759,
      "8216": 760,
      "822000": 761,
      "GM": 762,
      "861": 763,
      "FL": 764,
      "nM": 765,
      "DS": 766,
      "811999": 767,
      "924": 768,
      "Ġh": 769,
      "88196": 770,
      "--": 771,
      "1977": 772,
      "710": 773,
      "ice": 774,
      "1976": 775,
      "eg": 776,
      "1940": 777,
      "1944": 778,
      "873": 779,
      "xec": 780,
      "au": 781,
      "8215": 782,
      "Ġ&": 783,
      "972": 784,
      "IA": 785,
      "UN": 786,
      "Ġ5": 787,
      "OW": 788,
      "ich": 789,
      "600": 790,
      "cG": 791,
      "1967": 792,
      "ass": 793,
      "Ch": 794,
      "TR": 795,
      "ĠĠĠ": 796,
      "xaeB": 797,
      "ED": 798,
      "xaeN": 799,
      "8113": 800,
      "890": 801,
      "822003": 802,
      "ĠThe": 803,
      "end": 804,
      "ĠCom": 805,
      "1971": 806,
      "xaeF": 807,
      "ib": 808,
      "05": 809,
      "UFC": 810,
      "man": 811,
      "xaeP": 812,
      "847": 813,
      "1964": 814,
      "RC": 815,
      "931": 816,
      "per": 817,
      "ĠPro": 818,
      "CP": 819,
      "EM": 820,
      "int": 821,
      "ore": 822,
      "ect": 823,
      "#\\": 824,
      "ah": 825,
      "IG": 826,
      "ld": 827,
      "04": 828,
      "cF": 829,
      "OP": 830,
      "822018": 831,
      "xaeD": 832,
      "Ġk": 833,
      "ang": 834,
      "+\\": 835,
      "WE": 836,
      "..": 837,
      "az": 838,
      "1943": 839,
      "Ġ0": 840,
      "848": 841,
      "xaeS": 842,
      "822002": 843,
      "821990": 844,
      "ire": 845,
      "cP": 846,
      "ure": 847,
      "ver": 848,
      "1941": 849,
      "ens": 850,
      "8410": 851,
      "Ġ10": 852,
      "Ġe": 853,
      "AV": 854,
      "eT": 855,
      "eS": 856,
      "ial": 857,
      "811998": 858,
      "ly": 859,
      "1965": 860,
      "ational": 861,
      ")_": 862,
      "ust": 863,
      "07": 864,
      "IR": 865,
      "ide": 866,
      "ont": 867,
      "822001": 868,
      "iz": 869,
      "Ġ7": 870,
      "oh": 871,
      "874": 872,
      "811997": 873,
      "932": 874,
      "DD": 875,
      "eM": 876,
      "1966": 877,
      "ond": 878,
      "Ġto": 879,
      "ment": 880,
      "nt": 881,
      "1946": 882,
      "und": 883,
      "LB": 884,
      "1963": 885,
      "ies": 886,
      "ng": 887,
      "ss": 888,
      "xaeJ": 889,
      "1958": 890,
      "her": 891,
      "811960": 892,
      "ll": 893,
      "900": 894,
      "DA": 895,
      "1930": 896,
      "180": 897,
      "CE": 898,
      "=\\": 899,
      "oy": 900,
      "1942": 901,
      "971": 902,
      "821980": 903,
      "ock": 904,
      "310": 905,
      "xaeG": 906,
      "xafC": 907,
      "age": 908,
      "III": 909,
      "821999": 910,
      "OK": 911,
      "ary": 912,
      "AK": 913,
      "ru": 914,
      "LA": 915,
      "ft": 916,
      "wit": 917,
      "ĠAr": 918,
      "811994": 919,
      "bo": 920,
      "ace": 921,
      "871": 922,
      "1962": 923,
      "811992": 924,
      "811995": 925,
      "pe": 926,
      "1961": 927,
      "]\\": 928,
      "ET": 929,
      "811996": 930,
      "183": 931,
      "ish": 932,
      "8114": 933,
      "MV": 934,
      "lay": 935,
      "AAA": 936,
      "ica": 937,
      "tern": 938,
      "are": 939,
      "1959": 940,
      "08": 941,
      "ark": 942,
      "Bl": 943,
      "902": 944,
      "HT": 945,
      "1951": 946,
      "1939": 947,
      "IV": 948,
      "eC": 949,
      "06": 950,
      "MP": 951,
      "aw": 952,
      "1947": 953,
      "ear": 954,
      "88195": 955,
      "1955": 956,
      "WBC": 957,
      "8220": 958,
      "xafS": 959,
      "1948": 960,
      "cH": 961,
      "nC": 962,
      "ith": 963,
      "cL": 964,
      "nS": 965,
      "88194": 966,
      "MA": 967,
      "ey": 968,
      "821998": 969,
      "LD": 970,
      "pr": 971,
      "1954": 972,
      "NS": 973,
      "ii": 974,
      "925": 975,
      "ier": 976,
      "811991": 977,
      "120": 978,
      "MS": 979,
      "com": 980,
      "933": 981,
      "MC": 982,
      "250": 983,
      "821997": 984,
      "09": 985,
      "110": 986,
      "uc": 987,
      "1957": 988,
      "700": 989,
      "ory": 990,
      "1952": 991,
      "Ġ17": 992,
      "852": 993,
      "act": 994,
      "1920": 995,
      "BE": 996,
      "\\\\": 997,
      "1937": 998,
      "xaeT": 999,
      "ick": 1000,
      "cN": 1001,
      "ME": 1002,
      "973": 1003,
      "ert": 1004,
      "811993": 1005,
      "821996": 1006,
      "cW": 1007,
      "1949": 1008,
      "cJ": 1009,
      "8230": 1010,
      "xaeW": 1011,
      "1953": 1012,
      "ach": 1013,
      "OV": 1014,
      "ING": 1015,
      "ĠFIFA": 1016,
      "ite": 1017,
      "8218": 1018,
      "mer": 1019,
      "812019": 1020,
      "HO": 1021,
      "Ph": 1022,
      "ical": 1023,
      "1956": 1024,
      "821970": 1025,
      "USS": 1026,
      "nD": 1027,
      "920": 1028,
      "cR": 1029,
      "81186": 1030,
      "ug": 1031,
      "sh": 1032,
      "876": 1033,
      "82186": 1034,
      "ove": 1035,
      "Ġst": 1036,
      "610": 1037,
      "ĠZ": 1038,
      "ern": 1039,
      "811988": 1040,
      "1936": 1041,
      "8130": 1042,
      "Al": 1043,
      "ong": 1044,
      "xaeCM": 1045,
      "yst": 1046,
      "ence": 1047,
      "802": 1048,
      "8200": 1049,
      "orld": 1050,
      "TS": 1051,
      "Ġre": 1052,
      "HI": 1053,
      "for": 1054,
      "xafB": 1055,
      "130": 1056,
      "1938": 1057,
      "xafF": 1058,
      "ile": 1059,
      "9020": 1060,
      "TKO": 1061,
      "853": 1062,
      "811989": 1063,
      "NTT": 1064,
      "ork": 1065,
      "NP": 1066,
      "isc": 1067,
      "811950": 1068,
      "821995": 1069,
      "ost": 1070,
      "xafP": 1071,
      "9019": 1072,
      "Ġ16": 1073,
      "xeb": 1074,
      "811985": 1075,
      "877": 1076,
      "xafJ": 1077,
      "903": 1078,
      "ann": 1079,
      "Ġ-\\": 1080,
      "xabA": 1081,
      "81100": 1082,
      "LO": 1083,
      "You": 1084,
      "eThe": 1085,
      "811987": 1086,
      "811945": 1087,
      "EP": 1088,
      "ps": 1089,
      "iss": 1090,
      "TC": 1091,
      "eF": 1092,
      "926": 1093,
      "ee": 1094,
      "312": 1095,
      "nP": 1096,
      "974": 1097,
      "811986": 1098,
      "811972": 1099,
      ",\\": 1100,
      "DE": 1101,
      "LS": 1102,
      "88191": 1103,
      "811984": 1104,
      "eG": 1105,
      "nA": 1106,
      "840": 1107,
      "ci": 1108,
      "pl": 1109,
      "DC": 1110,
      "arl": 1111,
      "xabC": 1112,
      "1933": 1113,
      "apan": 1114,
      "KI": 1115,
      "cV": 1116,
      "xaeR": 1117,
      "TE": 1118,
      "821992": 1119,
      "821993": 1120,
      "811974": 1121,
      "821994": 1122,
      "811983": 1123,
      "DP": 1124,
      "olog": 1125,
      "Ġy": 1126,
      "311": 1127,
      "UC": 1128,
      "land": 1129,
      "xafG": 1130,
      "ĠUn": 1131,
      "NG": 1132,
      "849": 1133,
      "ĠTHE": 1134,
      "Web": 1135,
      "9018": 1136,
      "KA": 1137,
      "822019": 1138,
      "1934": 1139,
      "eB": 1140,
      "me": 1141,
      "Ġ[": 1142,
      "9021": 1143,
      "821960": 1144,
      "YO": 1145,
      "8420": 1146,
      "811979": 1147,
      "NN": 1148,
      "RI": 1149,
      "850": 1150,
      "cE": 1151,
      "ood": 1152,
      "ĠAl": 1153,
      "witter": 1154,
      "ux": 1155,
      "9710": 1156,
      "870": 1157,
      "1500": 1158,
      "fM": 1159,
      "313": 1160,
      "9022": 1161,
      "712": 1162,
      "ction": 1163,
      "oo": 1164,
      "xafN": 1165,
      "ĠSh": 1166,
      "ook": 1167,
      "821991": 1168,
      "927": 1169,
      "1935": 1170,
      "amp": 1171,
      "xafD": 1172,
      "1931": 1173,
      "811973": 1174,
      "811947": 1175,
      "old": 1176,
      "nF": 1177,
      "cK": 1178,
      "Ar": 1179,
      "xaeV": 1180,
      "xbbC": 1181,
      "ivers": 1182,
      "Ġ8": 1183,
      "811975": 1184,
      "811968": 1185,
      "nG": 1186,
      "ĠTh": 1187,
      "ix": 1188,
      "ime": 1189,
      "314": 1190,
      "eat": 1191,
      "ool": 1192,
      "8150": 1193,
      "LIVE": 1194,
      "811982": 1195,
      "811964": 1196,
      "xabM": 1197,
      "125": 1198,
      "oft": 1199,
      "ance": 1200,
      "1932": 1201,
      "ail": 1202,
      "ĠSp": 1203,
      "RPG": 1204,
      "eD": 1205,
      "8917": 1206,
      "9017": 1207,
      "NET": 1208,
      "811978": 1209,
      "EU": 1210,
      "RS": 1211,
      "sp": 1212,
      "Ġal": 1213,
      "rd": 1214,
      "Ġ15": 1215,
      "ung": 1216,
      "pp": 1217,
      "Ġr": 1218,
      "ĠCl": 1219,
      "811981": 1220,
      "811976": 1221,
      "8000": 1222,
      "xbbW": 1223,
      "811965": 1224,
      "rit": 1225,
      "ystem": 1226,
      "851": 1227,
      "8213": 1228,
      "pt": 1229,
      "ke": 1230,
      "450": 1231,
      "821950": 1232,
      "MI": 1233,
      "Ġon": 1234,
      "720": 1235,
      "KE": 1236,
      "ram": 1237,
      "the": 1238,
      "xbbJ": 1239,
      "CS": 1240,
      "PK": 1241,
      "803": 1242,
      "821986": 1243,
      "usic": 1244,
      "715": 1245,
      "Ġ12": 1246,
      "811971": 1247,
      "ode": 1248,
      "801": 1249,
      "1929": 1250,
      "8920": 1251,
      "140": 1252,
      "811977": 1253,
      "oci": 1254,
      "eA": 1255,
      "821989": 1256,
      "811969": 1257,
      "APAN": 1258,
      "ES": 1259,
      "Un": 1260,
      "ade": 1261,
      "1926": 1262,
      "ex": 1263,
      "nT": 1264,
      "ohn": 1265,
      "ĠQ": 1266,
      "ina": 1267,
      "ube": 1268,
      "LC": 1269,
      "862": 1270,
      "ium": 1271,
      "1927": 1272,
      "711": 1273,
      "878": 1274,
      "8125": 1275,
      "ĠBl": 1276,
      "ton": 1277,
      "9023": 1278,
      "907": 1279,
      "ĠSer": 1280,
      "821945": 1281,
      "904": 1282,
      "ĠSch": 1283,
      "811955": 1284,
      "GB": 1285,
      "xaeH": 1286,
      "330": 1287,
      "750": 1288,
      "xafT": 1289,
      "hy": 1290,
      "Ġmm": 1291,
      "8430": 1292,
      "160": 1293,
      "1923": 1294,
      "ND": 1295,
      "811930": 1296,
      "BF": 1297,
      "IL": 1298,
      "eP": 1299,
      "ron": 1300,
      "951": 1301,
      "811962": 1302,
      "1925": 1303,
      "811940": 1304,
      "315": 1305,
      "NBA": 1306,
      "ax": 1307,
      "1928": 1308,
      "811948": 1309,
      "1919": 1310,
      "ava": 1311,
      "ual": 1312,
      "879": 1313,
      "811944": 1314,
      "ound": 1315,
      "ank": 1316,
      "811967": 1317,
      "IE": 1318,
      "UF": 1319,
      "bA": 1320,
      "Ġ11": 1321,
      "HS": 1322,
      "Hz": 1323,
      "88193": 1324,
      "ros": 1325,
      "ame": 1326,
      "1918": 1327,
      "EF": 1328,
      "ition": 1329,
      "1917": 1330,
      "821987": 1331,
      "1921": 1332,
      "EX": 1333,
      "SM": 1334,
      "cl": 1335,
      "son": 1336,
      "ve": 1337,
      "9024": 1338,
      "SD": 1339,
      "fA": 1340,
      "ale": 1341,
      "OX": 1342,
      "811963": 1343,
      "oog": 1344,
      "ĠST": 1345,
      "xabD": 1346,
      "ator": 1347,
      "ict": 1348,
      "ĠAn": 1349,
      "ĠFor": 1350,
      "SH": 1351,
      "ult": 1352,
      "906": 1353,
      "xbbF": 1354,
      "BI": 1355,
      "nB": 1356,
      "ox": 1357,
      "ĠTe": 1358,
      "af": 1359,
      "IBM": 1360,
      "OH": 1361,
      "ai": 1362,
      "OD": 1363,
      "eL": 1364,
      "Ġ20": 1365,
      "8121": 1366,
      "nW": 1367,
      "821984": 1368,
      "811949": 1369,
      "ray": 1370,
      "Ġ+": 1371,
      "xbbB": 1372,
      "9016": 1373,
      "GA": 1374,
      "RT": 1375,
      "975": 1376,
      "NC": 1377,
      "che": 1378,
      "sch": 1379,
      "ki": 1380,
      "xbbM": 1381,
      "ree": 1382,
      "811959": 1383,
      "3000": 1384,
      "830": 1385,
      "PA": 1386,
      "UM": 1387,
      "ons": 1388,
      "1922": 1389,
      "oogle": 1390,
      "DNA": 1391,
      "OUR": 1392,
      "CA": 1393,
      "952": 1394,
      "811966": 1395,
      "ISO": 1396,
      "fB": 1397,
      "821988": 1398,
      "rom": 1399,
      "ild": 1400,
      "1924": 1401,
      "811942": 1402,
      "821979": 1403,
      "GI": 1404,
      "Ġ9": 1405,
      "GE": 1406,
      "GT": 1407,
      "IX": 1408,
      "ky": 1409,
      "res": 1410,
      "ĠMar": 1411,
      "811961": 1412,
      "ĠNew": 1413,
      "821944": 1414,
      "xbbS": 1415,
      "716": 1416,
      "DI": 1417,
      "yn": 1418,
      "821983": 1419,
      "811953": 1420,
      "821975": 1421,
      "xbbA": 1422,
      "9210": 1423,
      "905": 1424,
      "811943": 1425,
      "ĠComp": 1426,
      "PR": 1427,
      "ise": 1428,
      "821974": 1429,
      "igh": 1430,
      "8140": 1431,
      "xafW": 1432,
      "821985": 1433,
      "xabJ": 1434,
      "ata": 1435,
      "ĠEx": 1436,
      "981": 1437,
      "FF": 1438,
      "iel": 1439,
      "ĠCol": 1440,
      "IDE": 1441,
      "MVP": 1442,
      "ase": 1443,
      "811941": 1444,
      "821967": 1445,
      "to": 1446,
      "att": 1447,
      "811946": 1448,
      "717": 1449,
      "821943": 1450,
      "ka": 1451,
      "nR": 1452,
      "xafV": 1453,
      "909": 1454,
      "821971": 1455,
      "821972": 1456,
      "821978": 1457,
      "cThe": 1458,
      "way": 1459,
      "Ġi": 1460,
      "xaeL": 1461,
      "8916": 1462,
      "irl": 1463,
      "ternational": 1464,
      "SL": 1465,
      "9015": 1466,
      "811958": 1467,
      "713": 1468,
      "WF": 1469,
      "ein": 1470,
      "911": 1471,
      "821981": 1472,
      "ash": 1473,
      "821940": 1474,
      "HD": 1475,
      "908": 1476,
      "org": 1477,
      "orn": 1478,
      "350": 1479,
      "ae": 1480,
      "Ġ13": 1481,
      "804": 1482,
      "inux": 1483,
      "811954": 1484,
      "co": 1485,
      "eN": 1486,
      "9026": 1487,
      "ott": 1488,
      "nJ": 1489,
      "xabB": 1490,
      "928": 1491,
      "ous": 1492,
      "101": 1493,
      "8124": 1494,
      "811951": 1495,
      "bM": 1496,
      "978": 1497,
      "953": 1498,
      "ley": 1499,
      "821942": 1500,
      "CF": 1501,
      "eR": 1502,
      "8122": 1503,
      "1910": 1504,
      "1914": 1505,
      "udio": 1506,
      "112": 1507,
      "8412": 1508,
      "910": 1509,
      "ĠEd": 1510,
      "LED": 1511,
      "ĠII": 1512,
      "ower": 1513,
      "811936": 1514,
      "1900": 1515,
      "ĠRe": 1516,
      "1912": 1517,
      "811938": 1518,
      "YouT": 1519,
      "612": 1520,
      "7100": 1521,
      "EST": 1522,
      "97100": 1523,
      "anc": 1524,
      "811937": 1525,
      "NATO": 1526,
      "MO": 1527,
      "xaeCD": 1528,
      "821982": 1529,
      "ount": 1530,
      "821976": 1531,
      "GO": 1532,
      "854": 1533,
      "8214": 1534,
      "ERO": 1535,
      "._": 1536,
      "Pro": 1537,
      "fr": 1538,
      "que": 1539,
      "8915": 1540,
      "111": 1541,
      "821973": 1542,
      "811956": 1543,
      "Sh": 1544,
      "fC": 1545,
      "ts": 1546,
      "ans": 1547,
      "ign": 1548,
      "811920": 1549,
      "TD": 1550,
      "nN": 1551,
      "eth": 1552,
      "ĠĠĠĠĠĠĠ": 1553,
      "821977": 1554,
      "821969": 1555,
      "880": 1556,
      "LL": 1557,
      "TH": 1558,
      "VS": 1559,
      "AGE": 1560,
      "ics": 1561,
      "811952": 1562,
      "811939": 1563,
      "BN": 1564,
      "PER": 1565,
      "cO": 1566,
      "eJ": 1567,
      "la": 1568,
      "832": 1569,
      "enn": 1570,
      "ĠHe": 1571,
      "DF": 1572,
      "cI": 1573,
      "Ġth": 1574,
      "821941": 1575,
      "xabF": 1576,
      "934": 1577,
      "any": 1578,
      "821939": 1579,
      "YS": 1580,
      "ener": 1581,
      "rad": 1582,
      "ĠJapan": 1583,
      "DJ": 1584,
      "ome": 1585,
      "882006": 1586,
      "821920": 1587,
      "ath": 1588,
      "821968": 1589,
      "620": 1590,
      "MF": 1591,
      "ĠAss": 1592,
      "ROM": 1593,
      "ma": 1594,
      "oll": 1595,
      "AI": 1596,
      "8415": 1597,
      "811933": 1598,
      "Station": 1599,
      "xbbH": 1600,
      "ari": 1601,
      "ake": 1602,
      "AB": 1603,
      "PE": 1604,
      "ject": 1605,
      "Ġ100": 1606,
      "9029": 1607,
      "itt": 1608,
      "ĠAd": 1609,
      "811957": 1610,
      "983": 1611,
      "An": 1612,
      "Ġx": 1613,
      "9025": 1614,
      "own": 1615,
      "821965": 1616,
      "able": 1617,
      "ĠYou": 1618,
      "[\\": 1619,
      "rin": 1620,
      "ĠMe": 1621,
      "CO": 1622,
      "ery": 1623,
      "821964": 1624,
      "Com": 1625,
      "pen": 1626,
      "xaeU": 1627,
      "976": 1628,
      "901": 1629,
      "nV": 1630,
      "xabFC": 1631,
      "xcc": 1632,
      "layStation": 1633,
      "we": 1634,
      "ward": 1635,
      "xbbD": 1636,
      "ute": 1637,
      "YouTube": 1638,
      "730": 1639,
      "eV": 1640,
      "ef": 1641,
      "lic": 1642,
      "9014": 1643,
      "821963": 1644,
      "ĠJAPAN": 1645,
      "xaeMLB": 1646,
      "HQ": 1647,
      "eW": 1648,
      "8450": 1649,
      "929": 1650,
      "ĠWorld": 1651,
      "Cl": 1652,
      "ck": 1653,
      "8160": 1654,
      "8440": 1655,
      "855": 1656,
      "882010": 1657,
      "ings": 1658,
      "ĠEn": 1659,
      "811935": 1660,
      "FE": 1661,
      "WBA": 1662,
      "xaeO": 1663,
      "84100": 1664,
      "9012": 1665,
      "ĠCon": 1666,
      "KS": 1667,
      "LP": 1668,
      "Twitter": 1669,
      "min": 1670,
      "821966": 1671,
      "Ġpro": 1672,
      "TP": 1673,
      "ĠMan": 1674,
      "ames": 1675,
      "ta": 1676,
      "mi": 1677,
      "882011": 1678,
      "821930": 1679,
      "882008": 1680,
      "rist": 1681,
      "ife": 1682,
      "----": 1683,
      "!!": 1684,
      "1916": 1685,
      "NO": 1686,
      "Th": 1687,
      "row": 1688,
      "1911": 1689,
      "882005": 1690,
      "1915": 1691,
      "882007": 1692,
      "mb": 1693,
      "xaeK": 1694,
      "912": 1695,
      "ĠIs": 1696,
      "Ġvs": 1697,
      "Ġ|": 1698,
      "ĠRec": 1699,
      ";_": 1700,
      "CT": 1701,
      "ren": 1702,
      "Ġj": 1703,
      "RAM": 1704,
      "let": 1705,
      "ĠLove": 1706,
      "1905": 1707,
      "ement": 1708,
      "611": 1709,
      "eH": 1710,
      "9027": 1711,
      "821957": 1712,
      "ose": 1713,
      "AX": 1714,
      "ML": 1715,
      "ris": 1716,
      "ican": 1717,
      "821947": 1718,
      "rid": 1719,
      "811925": 1720,
      "GK": 1721,
      "xafR": 1722,
      "xafU": 1723,
      "8411": 1724,
      "ater": 1725,
      "ĠNight": 1726,
      "811931": 1727,
      "1909": 1728,
      "),": 1729,
      "IF": 1730,
      "oot": 1731,
      "xaeE": 1732,
      "9028": 1733,
      "811932": 1734,
      "AFC": 1735,
      "No": 1736,
      "iam": 1737,
      "8250": 1738,
      "xca": 1739,
      "BOX": 1740,
      "5000": 1741,
      "BL": 1742,
      "Mac": 1743,
      "eNHK": 1744,
      "na": 1745,
      "170": 1746,
      "WWE": 1747,
      "Ġis": 1748,
      "81183": 1749,
      "ĠSystem": 1750,
      "821958": 1751,
      "Su": 1752,
      "bC": 1753,
      "fF": 1754,
      "nH": 1755,
      "Ġ2016": 1756,
      "xabFA": 1757,
      "8123": 1758,
      "ĠLe": 1759,
      "821962": 1760,
      "821946": 1761,
      "ords": 1762,
      "GS": 1763,
      "Ġz": 1764,
      "Ġ{": 1765,
      "9011": 1766,
      "Ġwith": 1767,
      "fDVD": 1768,
      "net": 1769,
      "xbbE": 1770,
      "xcb": 1771,
      "ret": 1772,
      "811927": 1773,
      "ffice": 1774,
      "xbbR": 1775,
      "9013": 1776,
      "88183": 1777,
      "ana": 1778,
      "821933": 1779,
      "714": 1780,
      "Google": 1781,
      "806": 1782,
      "615": 1783,
      "LAN": 1784,
      "ONE": 1785,
      "les": 1786,
      "rand": 1787,
      "ĠCo": 1788,
      "red": 1789,
      "821949": 1790,
      "OVA": 1791,
      "form": 1792,
      "DO": 1793,
      "De": 1794,
      "ius": 1795,
      "xafE": 1796,
      "CC": 1797,
      "ble": 1798,
      "ner": 1799,
      "ĠOS": 1800,
      "811928": 1801,
      "ull": 1802,
      "ĠComm": 1803,
      "630": 1804,
      "HA": 1805,
      "ty": 1806,
      "8913": 1807,
      "ream": 1808,
      "ĠOF": 1809,
      "ution": 1810,
      "YA": 1811,
      "kW": 1812,
      "Ġch": 1813,
      "xea": 1814,
      "105": 1815,
      "324": 1816,
      "ave": 1817,
      "Mar": 1818,
      "UR": 1819,
      "856": 1820,
      "ations": 1821,
      "821953": 1822,
      "650": 1823,
      "cy": 1824,
      "859": 1825,
      "orth": 1826,
      "Ġder": 1827,
      "app": 1828,
      "uper": 1829,
      "xbbP": 1830,
      "ited": 1831,
      "roid": 1832,
      "osh": 1833,
      "rans": 1834,
      "xafH": 1835,
      "9010": 1836,
      "1880": 1837,
      "nK": 1838,
      "805": 1839,
      "xabS": 1840,
      "ism": 1841,
      "OB": 1842,
      "936": 1843,
      "863": 1844,
      "ors": 1845,
      "ĠRes": 1846,
      "1913": 1847,
      "CPU": 1848,
      "ology": 1849,
      "Le": 1850,
      "Pa": 1851,
      "ric": 1852,
      "orp": 1853,
      "Ġdes": 1854,
      "811923": 1855,
      "811929": 1856,
      "821938": 1857,
      "iP": 1858,
      "882013": 1859,
      "ERS": 1860,
      "882009": 1861,
      "board": 1862,
      "KB": 1863,
      "PV": 1864,
      "bur": 1865,
      "xafK": 1866,
      "ĠSP": 1867,
      "ĠCent": 1868,
      "stit": 1869,
      "xed": 1870,
      "115": 1871,
      "ald": 1872,
      "icros": 1873,
      "821959": 1874,
      "fJ": 1875,
      "fl": 1876,
      "116": 1877,
      "ORLD": 1878,
      "USIC": 1879,
      "Blu": 1880,
      "010": 1881,
      "320": 1882,
      "INA": 1883,
      "ress": 1884,
      "809": 1885,
      "935": 1886,
      "ene": 1887,
      "ĠBe": 1888,
      "821954": 1889,
      "821955": 1890,
      "oon": 1891,
      "uk": 1892,
      "ĠLIVE": 1893,
      "xaeFC": 1894,
      "xaeDVD": 1895,
      "xafJR": 1896,
      "raph": 1897,
      "821961": 1898,
      "821952": 1899,
      "Ġla": 1900,
      "Linux": 1901,
      "cU": 1902,
      "iT": 1903,
      "my": 1904,
      "ole": 1905,
      "ĠTOUR": 1906,
      "ĠPl": 1907,
      "mg": 1908,
      "Ġby": 1909,
      "ĠMusic": 1910,
      "821956": 1911,
      "882002": 1912,
      "617": 1913,
      "CH": 1914,
      "fS": 1915,
      "858": 1916,
      "414": 1917,
      "hel": 1918,
      "882012": 1919,
      "chn": 1920,
      "NASA": 1921,
      "1906": 1922,
      "811910": 1923,
      "MM": 1924,
      "port": 1925,
      "8930": 1926,
      "ita": 1927,
      "821948": 1928,
      "821937": 1929,
      "EL": 1930,
      "ger": 1931,
      "rat": 1932,
      "Ġ2008": 1933,
      "TOK": 1934,
      "821918": 1935,
      "FIFA": 1936,
      "URO": 1937,
      "du": 1938,
      "ler": 1939,
      "113": 1940,
      "edia": 1941,
      "982": 1942,
      "And": 1943,
      "PO": 1944,
      "fT": 1945,
      "ling": 1946,
      "reat": 1947,
      "1907": 1948,
      "8413": 1949,
      "ĠPh": 1950,
      "882014": 1951,
      "811934": 1952,
      "1908": 1953,
      "John": 1954,
      "UT": 1955,
      "808": 1956,
      "857": 1957,
      "1897": 1958,
      "oto": 1959,
      "811924": 1960,
      "ific": 1961,
      "1200": 1962,
      "MB": 1963,
      "iy": 1964,
      "103": 1965,
      "821936": 1966,
      "over": 1967,
      "360": 1968,
      "Ad": 1969,
      "fer": 1970,
      "8225": 1971,
      "913": 1972,
      "1902": 1973,
      "merican": 1974,
      "OVE": 1975,
      "air": 1976,
      "ink": 1977,
      "roup": 1978,
      "ĠOr": 1979,
      "ĠĠĠĠĠĠĠĠĠĠĠĠĠĠĠĠ": 1980,
      "icrosoft": 1981,
      "AF": 1982,
      "MG": 1983,
      "RP": 1984,
      "WS": 1985,
      "eI": 1986,
      "pm": 1987,
      "Ġ2009": 1988,
      "9220": 1989,
      "821927": 1990,
      "...": 1991,
      "La": 1992,
      "NR": 1993,
      "gen": 1994,
      "sc": 1995,
      "Ġet": 1996,
      "807": 1997,
      "xabV": 1998,
      "8416": 1999,
      "Ġ\\\\": 2000,
      "2500": 2001,
      "882004": 2002,
      "ush": 2003,
      "Ġcom": 2004,
      "811919": 2005,
      "con": 2006,
      "nE": 2007,
      "104": 2008,
      "ino": 2009,
      "114": 2010,
      "ora": 2011,
      "rop": 2012,
      "ĠWar": 2013,
      "811922": 2014,
      "BR": 2015,
      "Wii": 2016,
      "XT": 2017,
      "be": 2018,
      "Ġ\"\\": 2019,
      "82183": 2020,
      "isual": 2021,
      "ĠĠĠĠĠ": 2022,
      "ĠOn": 2023,
      "811921": 2024,
      "811900": 2025,
      "SI": 2026,
      "TT": 2027,
      "gh": 2028,
      "nU": 2029,
      "ara": 2030,
      "1903": 2031,
      "Mk": 2032,
      "New": 2033,
      "937": 2034,
      "ini": 2035,
      "821951": 2036,
      "Ġvon": 2037,
      "TOKYO": 2038,
      "Java": 2039,
      "THE": 2040,
      "84200": 2041,
      "109": 2042,
      "alk": 2043,
      "lect": 2044,
      "ĠTV": 2045,
      "882015": 2046,
      "ĠSchool": 2047,
      "Qu": 2048,
      "nL": 2049,
      "Ġund": 2050,
      "892000": 2051,
      "ĠFl": 2052,
      "821925": 2053,
      "821914": 2054,
      "API": 2055,
      "press": 2056,
      "616": 2057,
      "hr": 2058,
      "ys": 2059,
      "Ġ'": 2060,
      "xafO": 2061,
      "892008": 2062,
      "9030": 2063,
      "ins": 2064,
      "1904": 2065,
      "821931": 2066,
      "821932": 2067,
      "821921": 2068,
      "821924": 2069,
      "ja": 2070,
      "88100": 2071,
      "882000": 2072,
      "out": 2073,
      "811926": 2074,
      "821923": 2075,
      "Am": 2076,
      "915": 2077,
      "ere": 2078,
      "IBF": 2079,
      "Net": 2080,
      "fV": 2081,
      "914": 2082,
      "ouse": 2083,
      "821934": 2084,
      "ield": 2085,
      "HP": 2086,
      "NK": 2087,
      "bB": 2088,
      "fP": 2089,
      "8145": 2090,
      "977": 2091,
      "8126": 2092,
      "oss": 2093,
      "821935": 2094,
      "811913": 2095,
      "1889": 2096,
      "Ġ2012": 2097,
      "xafL": 2098,
      "Ġdi": 2099,
      "811918": 2100,
      "881868": 2101,
      "NPB": 2102,
      "ĠAssoci": 2103,
      "ABC": 2104,
      "eKO": 2105,
      "9712": 2106,
      "891990": 2107,
      "882016": 2108,
      "urn": 2109,
      "811917": 2110,
      "ĠInternational": 2111,
      "ĠUnivers": 2112,
      "718": 2113,
      "CK": 2114,
      "CL": 2115,
      "RNA": 2116,
      "mph": 2117,
      "ĠDe": 2118,
      "ays": 2119,
      "erson": 2120,
      "SUPER": 2121,
      "143": 2122,
      "613": 2123,
      "FT": 2124,
      "eE": 2125,
      "8918": 2126,
      "Ġbe": 2127,
      "8127": 2128,
      "Ġmi": 2129,
      "1901": 2130,
      "318": 2131,
      "740": 2132,
      "Ġ<": 2133,
      "8199": 2134,
      "xabP": 2135,
      "892010": 2136,
      "117": 2137,
      "81500": 2138,
      "uss": 2139,
      "box": 2140,
      "BD": 2141,
      "bF": 2142,
      "mp": 2143,
      "ĠFight": 2144,
      "Ġsp": 2145,
      "811912": 2146,
      "821919": 2147,
      "earch": 2148,
      "Phone": 2149,
      "316": 2150,
      "cX": 2151,
      "uro": 2152,
      "Ġ2010": 2153,
      "NEWS": 2154,
      "its": 2155,
      "ublic": 2156,
      "OLD": 2157,
      "725": 2158,
      "MLB": 2159,
      "SK": 2160,
      "UD": 2161,
      "ien": 2162,
      "lt": 2163,
      "nJR": 2164,
      "Ġ2013": 2165,
      "ane": 2166,
      "118": 2167,
      "ato": 2168,
      "8128": 2169,
      "eter": 2170,
      "ĠGu": 2171,
      "882003": 2172,
      "illboard": 2173,
      "ike": 2174,
      "NPO": 2175,
      "1895": 2176,
      "Sc": 2177,
      "WC": 2178,
      "ura": 2179,
      "8170": 2180,
      "xabH": 2181,
      "xbcFC": 2182,
      "892007": 2183,
      "NEC": 2184,
      "ĠCar": 2185,
      "AST": 2186,
      "CG": 2187,
      "Ġ2000": 2188,
      "xaeUEFA": 2189,
      "xafNHK": 2190,
      "9317": 2191,
      "ero": 2192,
      "102": 2193,
      "ety": 2194,
      "ĠWORLD": 2195,
      "illiam": 2196,
      "irect": 2197,
      "1890": 2198,
      "Ġ30": 2199,
      "xabK": 2200,
      "xbbG": 2201,
      "ĠSS": 2202,
      "isp": 2203,
      "ĠEng": 2204,
      "811914": 2205,
      "ĠRecords": 2206,
      "Fran": 2207,
      "TM": 2208,
      "fD": 2209,
      "ko": 2210,
      "li": 2211,
      "ral": 2212,
      "yo": 2213,
      "Ġat": 2214,
      "Ġdu": 2215,
      "821926": 2216,
      "IPv": 2217,
      "210": 2218,
      "FS": 2219,
      "UB": 2220,
      "USA": 2221,
      "Ġ2011": 2222,
      "Ġ2015": 2223,
      "930": 2224,
      "ony": 2225,
      "ĠBar": 2226,
      "724": 2227,
      "ĠLive": 2228,
      "ĠEURO": 2229,
      "unes": 2230,
      "1896": 2231,
      "cY": 2232,
      "Ġ50": 2233,
      "Ġ25": 2234,
      "xaeI": 2235,
      "xbbK": 2236,
      "erg": 2237,
      "ano": 2238,
      "ese": 2239,
      "ĠAir": 2240,
      "721": 2241,
      "ets": 2242,
      "AND": 2243,
      "145": 2244,
      "719": 2245,
      "Te": 2246,
      "bJ": 2247,
      "by": 2248,
      "ze": 2249,
      "8240": 2250,
      "9000": 2251,
      "outh": 2252,
      "ACK": 2253,
      "...\\": 2254,
      "ĠCompany": 2255,
      "WWF": 2256,
      "bV": 2257,
      "bl": 2258,
      "Ġ14": 2259,
      "9320": 2260,
      "ision": 2261,
      "821929": 2262,
      "mac": 2263,
      "oint": 2264,
      "82100": 2265,
      "ĠTour": 2266,
      "ATO": 2267,
      "811905": 2268,
      "1860": 2269,
      "OCA": 2270,
      "240": 2271,
      "EE": 2272,
      "GC": 2273,
      "GHQ": 2274,
      "OT": 2275,
      "bS": 2276,
      "ham": 2277,
      "rest": 2278,
      "Ġ23": 2279,
      "xbbT": 2280,
      "84300": 2281,
      "123": 2282,
      "rag": 2283,
      "821922": 2284,
      "811911": 2285,
      "811915": 2286,
      "821913": 2287,
      "irls": 2288,
      "142": 2289,
      "AE": 2290,
      "QB": 2291,
      "line": 2292,
      "uf": 2293,
      "Ġcm": 2294,
      "8246": 2295,
      "xafI": 2296,
      "892011": 2297,
      "892009": 2298,
      "9310": 2299,
      "ICE": 2300,
      "erv": 2301,
      "811908": 2302,
      "1899": 2303,
      "MBS": 2304,
      "PI": 2305,
      "eCD": 2306,
      "Ġne": 2307,
      "891970": 2308,
      "ARD": 2309,
      "882017": 2310,
      "olution": 2311,
      "ĠWh": 2312,
      "ĠVol": 2313,
      "bert": 2314,
      "azon": 2315,
      "ĠColle": 2316,
      "bD": 2317,
      "xt": 2318,
      "ya": 2319,
      "ĠLI": 2320,
      "Ġ)\\": 2321,
      "135": 2322,
      "lex": 2323,
      "amb": 2324,
      "ents": 2325,
      "821910": 2326,
      "811907": 2327,
      "xaeNBA": 2328,
      "ĠAssociation": 2329,
      "340": 2330,
      "Fi": 2331,
      "Re": 2332,
      "eK": 2333,
      "iPhone": 2334,
      "Ġ2014": 2335,
      "xabT": 2336,
      "88150": 2337,
      "inc": 2338,
      "ĠGT": 2339,
      "use": 2340,
      "illa": 2341,
      "1870": 2342,
      "JRA": 2343,
      "MT": 2344,
      "aj": 2345,
      "bP": 2346,
      "8180": 2347,
      "8190": 2348,
      "ICA": 2349,
      "arm": 2350,
      "821928": 2351,
      "INT": 2352,
      "BMW": 2353,
      "IGHT": 2354,
      "AZ": 2355,
      "He": 2356,
      "NWA": 2357,
      "8222": 2358,
      "ates": 2359,
      "8129": 2360,
      "adio": 2361,
      "ever": 2362,
      "TY": 2363,
      "UP": 2364,
      "ean": 2365,
      "erf": 2366,
      "OME": 2367,
      "!?\\": 2368,
      "WR": 2369,
      "kt": 2370,
      "xaeX": 2371,
      "892006": 2372,
      "alt": 2373,
      "ĠAward": 2374,
      "oun": 2375,
      "ĠStudio": 2376,
      "eTKO": 2377,
      "ideo": 2378,
      "Ca": 2379,
      "yl": 2380,
      "Ġ19": 2381,
      "Ġ21": 2382,
      "8460": 2383,
      "811000": 2384,
      "1300": 2385,
      "ional": 2386,
      "ĠRail": 2387,
      "ĠGl": 2388,
      "821911": 2389,
      "821917": 2390,
      "147": 2391,
      "fK": 2392,
      "nX": 2393,
      "Ġan": 2394,
      "Ġle": 2395,
      "Ġ18": 2396,
      "8919": 2397,
      "9330": 2398,
      "860": 2399,
      "inn": 2400,
      "eng": 2401,
      "ĠSci": 2402,
      "1600": 2403,
      "reen": 2404,
      "ett": 2405,
      "882001": 2406,
      "ĠInc": 2407,
      "berg": 2408,
      "6100": 2409,
      "LT": 2410,
      "eor": 2411,
      "uch": 2412,
      "Ġ2006": 2413,
      "979": 2414,
      "xafCD": 2415,
      "xafDVD": 2416,
      "950": 2417,
      "ĠSH": 2418,
      "ĠMy": 2419,
      "882018": 2420,
      "821912": 2421,
      "550": 2422,
      ">\\": 2423,
      "BGM": 2424,
      "Sp": 2425,
      "aur": 2426,
      "ces": 2427,
      "oz": 2428,
      "och": 2429,
      "tt": 2430,
      "Ġ22": 2431,
      "8425": 2432,
      "962": 2433,
      "416": 2434,
      "128": 2435,
      "1100": 2436,
      "440": 2437,
      "152": 2438,
      "ĠSe": 2439,
      "ĠFran": 2440,
      "ĠNo": 2441,
      "AKB": 2442,
      "ship": 2443,
      "510": 2444,
      "MR": 2445,
      "SO": 2446,
      "VV": 2447,
      "ĠSE": 2448,
      "Ġ2007": 2449,
      "9200": 2450,
      "aster": 2451,
      "DH": 2452,
      "MHz": 2453,
      "oe": 2454,
      "vs": 2455,
      "833": 2456,
      "xabNHK": 2457,
      "xbcr": 2458,
      "xafX": 2459,
      "9316": 2460,
      "121": 2461,
      "ĠAct": 2462,
      "727": 2463,
      "ille": 2464,
      "oul": 2465,
      "Ġsh": 2466,
      "irst": 2467,
      "ATM": 2468,
      "ACE": 2469,
      "ĠInstit": 2470,
      "orpor": 2471,
      "640": 2472,
      "FW": 2473,
      "Ġ2003": 2474,
      "8100": 2475,
      "8221": 2476,
      "hem": 2477,
      "8132": 2478,
      "821915": 2479,
      "811909": 2480,
      "1885": 2481,
      "1894": 2482,
      "HF": 2483,
      "NFL": 2484,
      "xaeNHK": 2485,
      "xaeSF": 2486,
      "892012": 2487,
      "891980": 2488,
      "xbbL": 2489,
      "ars": 2490,
      "TOP": 2491,
      "evel": 2492,
      "pple": 2493,
      "eneral": 2494,
      "NBC": 2495,
      "nI": 2496,
      "89100": 2497,
      "ange": 2498,
      "ility": 2499,
      "ival": 2500,
      "ISU": 2501,
      "obert": 2502,
      "BBC": 2503,
      "Con": 2504,
      "EV": 2505,
      "Met": 2506,
      "Office": 2507,
      "aA": 2508,
      "bit": 2509,
      "ca": 2510,
      "cal": 2511,
      "work": 2512,
      "inal": 2513,
      "ĠIt": 2514,
      "ĠArt": 2515,
      "230": 2516,
      "270": 2517,
      "VTR": 2518,
      "Ġro": 2519,
      "8196": 2520,
      "892005": 2521,
      "orm": 2522,
      "ĠTom": 2523,
      "unt": 2524,
      "iver": 2525,
      "eTHE": 2526,
      "722": 2527,
      "BB": 2528,
      "VHS": 2529,
      "eO": 2530,
      "lin": 2531,
      "rig": 2532,
      "Ġas": 2533,
      "xabW": 2534,
      "723": 2535,
      "881998": 2536,
      "ittle": 2537,
      "INAL": 2538,
      "760": 2539,
      "OG": 2540,
      "VP": 2541,
      "}_": 2542,
      "erry": 2543,
      "ĠAll": 2544,
      "3500": 2545,
      "821916": 2546,
      "OCK": 2547,
      "UFJ": 2548,
      "%)\\": 2549,
      "JA": 2550,
      "UI": 2551,
      "bps": 2552,
      "xaeJR": 2553,
      "954": 2554,
      "ARA": 2555,
      "isch": 2556,
      "ĠBro": 2557,
      "olf": 2558,
      "1872": 2559,
      "ASH": 2560,
      "El": 2561,
      "fG": 2562,
      "Ġor": 2563,
      "xabG": 2564,
      "8470": 2565,
      "811897": 2566,
      "124": 2567,
      "rav": 2568,
      "ĠOne": 2569,
      "Ġpl": 2570,
      "CEO": 2571,
      "ĠServ": 2572,
      "ĠServer": 2573,
      "))": 2574,
      "1898": 2575,
      "Fl": 2576,
      "ZERO": 2577,
      "rich": 2578,
      "Ġ2004": 2579,
      "205": 2580,
      "ated": 2581,
      "ache": 2582,
      "1878": 2583,
      "Co": 2584,
      "IEC": 2585,
      "Jr": 2586,
      "PP": 2587,
      "fW": 2588,
      "8950": 2589,
      "8914": 2590,
      "8940": 2591,
      "Ġ\\'": 2592,
      "108": 2593,
      "ats": 2594,
      "8135": 2595,
      "reet": 2596,
      "ĠPlay": 2597,
      "elle": 2598,
      "225": 2599,
      "ĠGroup": 2600,
      "off": 2601,
      "ampion": 2602,
      "ĠUniversity": 2603,
      "317": 2604,
      "Ġ.": 2605,
      "xabCD": 2606,
      "ister": 2607,
      "726": 2608,
      "rain": 2609,
      "811902": 2610,
      "875000": 2611,
      "xaePV": 2612,
      "UCI": 2613,
      "Ġ[\\": 2614,
      "iTunes": 2615,
      "141": 2616,
      "1884": 2617,
      "220": 2618,
      "BT": 2619,
      "HIP": 2620,
      "JST": 2621,
      "PlayStation": 2622,
      "aut": 2623,
      "Ġ:": 2624,
      "xabR": 2625,
      "811890": 2626,
      "arb": 2627,
      "atch": 2628,
      "ital": 2629,
      "ama": 2630,
      "1873": 2631,
      "EMI": 2632,
      "da": 2633,
      "rpm": 2634,
      "8850": 2635,
      "8480": 2636,
      "9313": 2637,
      "2020": 2638,
      "166": 2639,
      "ĠAg": 2640,
      "ola": 2641,
      "AMA": 2642,
      "okyo": 2643,
      "520": 2644,
      "625": 2645,
      "bG": 2646,
      "8245": 2647,
      "ĠSc": 2648,
      "737": 2649,
      "7500": 2650,
      "Ġme": 2651,
      "ript": 2652,
      "811901": 2653,
      "1871": 2654,
      "1875": 2655,
      "821905": 2656,
      "119": 2657,
      "144": 2658,
      "FK": 2659,
      "ISS": 2660,
      "OPS": 2661,
      "RY": 2662,
      "ZO": 2663,
      "aM": 2664,
      "aS": 2665,
      "fR": 2666,
      "fCD": 2667,
      "ni": 2668,
      "9212": 2669,
      "865": 2670,
      "8710": 2671,
      "470": 2672,
      "ĠSec": 2673,
      "ĠAnd": 2674,
      "ster": 2675,
      "ĠPe": 2676,
      "ĠRev": 2677,
      "81400": 2678,
      "8224": 2679,
      "ĠWindows": 2680,
      "andard": 2681,
      "ird": 2682,
      "1876": 2683,
      "cade": 2684,
      "eh": 2685,
      "xafFC": 2686,
      "892004": 2687,
      "122": 2688,
      "430": 2689,
      "ĠTr": 2690,
      "881996": 2691,
      "arles": 2692,
      "Ġ{_": 2693,
      "4000": 2694,
      "985": 2695,
      "DR": 2696,
      "Ed": 2697,
      "FX": 2698,
      "JI": 2699,
      "PM": 2700,
      "Ver": 2701,
      "Ġ2005": 2702,
      "84500": 2703,
      "963": 2704,
      "821890": 2705,
      "8131": 2706,
      "ĠVal": 2707,
      "Ġfrom": 2708,
      "avid": 2709,
      "1877": 2710,
      "USB": 2711,
      "ĠTechn": 2712,
      "aC": 2713,
      "nO": 2714,
      "ny": 2715,
      "oad": 2716,
      "xaeTV": 2717,
      "892013": 2718,
      "955": 2719,
      "9315": 2720,
      "ĠPar": 2721,
      "ĠPart": 2722,
      "881600": 2723,
      "811906": 2724,
      "ella": 2725,
      "ellator": 2726,
      "pha": 2727,
      "Ġyou": 2728,
      "(\"": 2729,
      "146": 2730,
      "ype": 2731,
      "xabU": 2732,
      "892014": 2733,
      "xbaFC": 2734,
      "938": 2735,
      "ĠMag": 2736,
      "881997": 2737,
      "ada": 2738,
      "ĠVer": 2739,
      "ĠUp": 2740,
      "aven": 2741,
      "aint": 2742,
      "ĠResearch": 2743,
      "1800": 2744,
      "BU": 2745,
      "Ġ*": 2746,
      "939": 2747,
      "916": 2748,
      "STS": 2749,
      "RAW": 2750,
      "ĠSoci": 2751,
      "235": 2752,
      "une": 2753,
      "rim": 2754,
      "811903": 2755,
      "ecial": 2756,
      "821900": 2757,
      "ĠInstitute": 2758,
      "319": 2759,
      "AY": 2760,
      "HC": 2761,
      "JT": 2762,
      "National": 2763,
      "Ġen": 2764,
      "rol": 2765,
      "ĠLife": 2766,
      "ĠHot": 2767,
      "ĠIII": 2768,
      "ental": 2769,
      "ote": 2770,
      "uth": 2771,
      "ATE": 2772,
      "ula": 2773,
      "ĠStore": 2774,
      "811916": 2775,
      "1879": 2776,
      "DIO": 2777,
      "1887": 2778,
      "1893": 2779,
      "Ab": 2780,
      "CR": 2781,
      "QU": 2782,
      "VII": 2783,
      "fo": 2784,
      "uz": 2785,
      "umm": 2786,
      "8414": 2787,
      "204": 2788,
      "ody": 2789,
      "ISP": 2790,
      "811904": 2791,
      "WEB": 2792,
      "here": 2793,
      "UFO": 2794,
      "1891": 2795,
      "6000": 2796,
      "AU": 2797,
      "XX": 2798,
      "xaePC": 2799,
      "918": 2800,
      "919": 2801,
      "415": 2802,
      "ilm": 2803,
      "ason": 2804,
      "una": 2805,
      "Ġcon": 2806,
      "intosh": 2807,
      "HTML": 2808,
      "burg": 2809,
      "eorge": 2810,
      "1881": 2811,
      "212": 2812,
      "618": 2813,
      "Gl": 2814,
      "PL": 2815,
      "PU": 2816,
      "VR": 2817,
      "ij": 2818,
      "834": 2819,
      "892003": 2820,
      "811899": 2821,
      "ĠFC": 2822,
      "882019": 2823,
      "881986": 2824,
      "oph": 2825,
      "1874": 2826,
      "REAM": 2827,
      "cTHE": 2828,
      "881999": 2829,
      "OHC": 2830,
      "1886": 2831,
      "cNHK": 2832,
      "now": 2833,
      "rum": 2834,
      "Ġit": 2835,
      "ONG": 2836,
      "81150": 2837,
      "88133": 2838,
      "arg": 2839,
      "ĠNational": 2840,
      "uts": 2841,
      "uck": 2842,
      "1882": 2843,
      "RU": 2844,
      "bum": 2845,
      "fess": 2846,
      "iOS": 2847,
      "tel": 2848,
      "151": 2849,
      "ĠReg": 2850,
      "881989": 2851,
      "NHL": 2852,
      "ipp": 2853,
      "ĠChampion": 2854,
      "xaeBGM": 2855,
      "DDI": 2856,
      "ĠClub": 2857,
      "//": 2858,
      "380": 2859,
      "DB": 2860,
      "ION": 2861,
      "JG": 2862,
      "Sch": 2863,
      "eNA": 2864,
      "nal": 2865,
      "Ġ200": 2866,
      "Ġ60": 2867,
      "Ġha": 2868,
      "8417": 2869,
      "811896": 2870,
      "81300": 2871,
      "881980": 2872,
      "raft": 2873,
      "ular": 2874,
      "ograph": 2875,
      "ova": 2876,
      "ello": 2877,
      "821907": 2878,
      "821908": 2879,
      "811880": 2880,
      "OWN": 2881,
      "oyal": 2882,
      "DN": 2883,
      "FBI": 2884,
      "ior": 2885,
      "Ġhe": 2886,
      "8223": 2887,
      "864": 2888,
      "RAC": 2889,
      "811889": 2890,
      "81170": 2891,
      "413": 2892,
      "ĠAb": 2893,
      "ĠPol": 2894,
      "omb": 2895,
      "ĠHer": 2896,
      "odel": 2897,
      "1888": 2898,
      "211": 2899,
      "IBA": 2900,
      "My": 2901,
      "Wh": 2902,
      "bR": 2903,
      "cd": 2904,
      "gram": 2905,
      "Ġ2017": 2906,
      "956": 2907,
      "ARE": 2908,
      "811884": 2909,
      "era": 2910,
      "106": 2911,
      "ense": 2912,
      "301": 2913,
      "ĠTime": 2914,
      "ĠIN": 2915,
      "ĠInd": 2916,
      "ĠJohn": 2917,
      "ĠStud": 2918,
      "881990": 2919,
      "ensis": 2920,
      "020": 2921,
      "275": 2922,
      "SB": 2923,
      "ks": 2924,
      "uel": 2925,
      "8840": 2926,
      "ĠMed": 2927,
      "ĠAm": 2928,
      "ĠBO": 2929,
      "ĠGP": 2930,
      "urch": 2931,
      "Ġdel": 2932,
      "Ġ//": 2933,
      "ALL": 2934,
      "821906": 2935,
      "881979": 2936,
      "CBS": 2937,
      "HU": 2938,
      "WD": 2939,
      "YOU": 2940,
      "aB": 2941,
      "bT": 2942,
      "cle": 2943,
      "hp": 2944,
      "ique": 2945,
      "wo": 2946,
      "xabL": 2947,
      "891995": 2948,
      "84400": 2949,
      "TIME": 2950,
      "811888": 2951,
      "lement": 2952,
      "rem": 2953,
      "ĠLOVE": 2954,
      "Ste": 2955,
      "1869": 2956,
      "Ġwh": 2957,
      "1850": 2958,
      "280": 2959,
      "512": 2960,
      "660": 2961,
      "FU": 2962,
      "fL": 2963,
      "oom": 2964,
      "ring": 2965,
      "itz": 2966,
      "ATP": 2967,
      "767": 2968,
      "ISBN": 2969,
      "ĠInter": 2970,
      "1861": 2971,
      "CN": 2972,
      "GN": 2973,
      "VA": 2974,
      "fin": 2975,
      "ied": 2976,
      "831": 2977,
      "999": 2978,
      "964": 2979,
      "ena": 2980,
      "ala": 2981,
      "ĠCont": 2982,
      "ĠMon": 2983,
      "rib": 2984,
      "821909": 2985,
      "ngel": 2986,
      "ĠSociety": 2987,
      ",_": 2988,
      "IK": 2989,
      "JFL": 2990,
      "Japan": 2991,
      "Pl": 2992,
      "VER": 2993,
      "WOR": 2994,
      "World": 2995,
      "YZ": 2996,
      "aG": 2997,
      "gl": 2998,
      "iber": 2999,
      "ml": 3000,
      "yd": 3001,
      "yle": 3002,
      "zo": 3003,
      "xabAAA": 3004,
      "892002": 3005,
      "811885": 3006,
      "007": 3007,
      "0000": 3008,
      "erm": 3009,
      "107": 3010,
      "ative": 3011,
      "132": 3012,
      "ĠMUSIC": 3013,
      "ĠAs": 3014,
      "ĠAmerican": 3015,
      "ions": 3016,
      "221": 3017,
      "ĠRep": 3018,
      "ĠIS": 3019,
      "iew": 3020,
      "SCE": 3021,
      "1862": 3022,
      "881993": 3023,
      "821880": 3024,
      "LOVE": 3025,
      "ĠEnter": 3026,
      ")(": 3027,
      "365": 3028,
      "MIT": 3029,
      "Ne": 3030,
      "POP": 3031,
      "ware": 3032,
      "Ġ>": 3033,
      "892015": 3034,
      "892001": 3035,
      "9230": 3036,
      "xacF": 3037,
      "88135": 3038,
      "orr": 3039,
      "ĠSm": 3040,
      "881985": 3041,
      "ĠEl": 3042,
      "ĠNet": 3043,
      "oth": 3044,
      "oper": 3045,
      "aka": 3046,
      "1866": 3047,
      "UNIX": 3048,
      "Black": 3049,
      "KBS": 3050,
      "OE": 3051,
      "UK": 3052,
      "nNHK": 3053,
      "Ġ24": 3054,
      "8142": 3055,
      "811898": 3056,
      "ĠCH": 3057,
      "icha": 3058,
      "ĠPark": 3059,
      "ĠDay": 3060,
      "nder": 3061,
      "1868": 3062,
      "ische": 3063,
      "ĠAnn": 3064,
      "ĠCenter": 3065,
      "orporation": 3066,
      ")'": 3067,
      "CIA": 3068,
      "NY": 3069,
      "ZE": 3070,
      "aft": 3071,
      "cCD": 3072,
      "fe": 3073,
      "ford": 3074,
      "8194": 3075,
      "917": 3076,
      "460": 3077,
      "eta": 3078,
      "ĠDes": 3079,
      "ĠLa": 3080,
      "omas": 3081,
      "unic": 3082,
      "obile": 3083,
      "1865": 3084,
      "821903": 3085,
      "881973": 3086,
      "International": 3087,
      "mann": 3088,
      "ĠExpress": 3089,
      "ridge": 3090,
      "Android": 3091,
      "\")\\": 3092,
      "JO": 3093,
      "VC": 3094,
      "_|": 3095,
      "cs": 3096,
      "rac": 3097,
      "Ġkg": 3098,
      "8925": 3099,
      "9350": 3100,
      "81175": 3101,
      "ICOCA": 3102,
      "ouch": 3103,
      "881988": 3104,
      "881995": 3105,
      "ĠĠĠĠĠĠ": 3106,
      "8165": 3107,
      "Ġdo": 3108,
      "ally": 3109,
      "845000": 3110,
      "ĠIsland": 3111,
      "ĠCollege": 3112,
      ".,": 3113,
      "FR": 3114,
      "JF": 3115,
      "KK": 3116,
      "Xbox": 3117,
      "eWBC": 3118,
      "Ġ40": 3119,
      "8921": 3120,
      "821898": 3121,
      "ature": 3122,
      "icht": 3123,
      "256": 3124,
      "ĠGe": 3125,
      "628": 3126,
      "ĠHigh": 3127,
      "MAX": 3128,
      "ĠNews": 3129,
      "7200": 3130,
      "<\\": 3131,
      "CI": 3132,
      "DX": 3133,
      "HR": 3134,
      "MD": 3135,
      "MAP": 3136,
      "URA": 3137,
      "VI": 3138,
      "William": 3139,
      "cTO": 3140,
      "fN": 3141,
      "mon": 3142,
      "oid": 3143,
      "rt": 3144,
      "vent": 3145,
      "Ġ2001": 3146,
      "835": 3147,
      "ines": 3148,
      "ĠCount": 3149,
      "1400": 3150,
      "881582": 3151,
      "ĠLand": 3152,
      "ema": 3153,
      "881970": 3154,
      "ize": 3155,
      "otten": 3156,
      "ĠEdition": 3157,
      "ĠChampionship": 3158,
      "622": 3159,
      "984": 3160,
      ":_": 3161,
      "Microsoft": 3162,
      "Vol": 3163,
      "ba": 3164,
      "ira": 3165,
      "Ġo": 3166,
      "xafTBS": 3167,
      "ARS": 3168,
      "881871": 3169,
      "ĠSan": 3170,
      "ĠPri": 3171,
      "ĠGO": 3172,
      "ĠHist": 3173,
      "ersion": 3174,
      "ista": 3175,
      "1864": 3176,
      "eek": 3177,
      "ethod": 3178,
      "mbH": 3179,
      "215": 3180,
      "62006": 3181,
      "DOS": 3182,
      "Open": 3183,
      "cil": 3184,
      "Ġ)": 3185,
      "ĠAG": 3186,
      "Ġun": 3187,
      "891960": 3188,
      "9215": 3189,
      "81120": 3190,
      "811894": 3191,
      "alle": 3192,
      "1700": 3193,
      "ĠBas": 3194,
      "ĠDisc": 3195,
      "ĠWe": 3196,
      "ĠOf": 3197,
      "841000": 3198,
      "ĠStreet": 3199,
      "777": 3200,
      "Ġvol": 3201,
      "881991": 3202,
      "ahoo": 3203,
      "xabDFA": 3204,
      "formation": 3205,
      "ĠRailway": 3206,
      ".)\\": 3207,
      "62009": 3208,
      "_{": 3209,
      "go": 3210,
      "jp": 3211,
      "less": 3212,
      "win": 3213,
      "Ġ2002": 3214,
      "Ġqu": 3215,
      "8260": 3216,
      "842000": 3217,
      "811886": 3218,
      "811895": 3219,
      "821889": 3220,
      "155": 3221,
      "ĠCity": 3222,
      "ĠCorporation": 3223,
      "ĠMac": 3224,
      "leg": 3225,
      "8227": 3226,
      "Ġse": 3227,
      "imate": 3228,
      "ATS": 3229,
      "emor": 3230,
      "apt": 3231,
      "istr": 3232,
      "ĠChrist": 3233,
      "881975": 3234,
      "ternet": 3235,
      "'t": 3236,
      "1892": 3237,
      "3100": 3238,
      "780": 3239,
      "AWA": 3240,
      "EA": 3241,
      "IOC": 3242,
      "URE": 3243,
      "iG": 3244,
      "no": 3245,
      "right": 3246,
      "sk": 3247,
      "ww": 3248,
      "ye": 3249,
      "za": 3250,
      "xafWindows": 3251,
      "92100": 3252,
      "9100": 3253,
      "811883": 3254,
      "iness": 3255,
      "ĠCan": 3256,
      "ĠBoy": 3257,
      "624": 3258,
      "ried": 3259,
      "umber": 3260,
      "Ġwas": 3261,
      "ization": 3262,
      "1830": 3263,
      "weet": 3264,
      "518": 3265,
      "CB": 3266,
      "SV": 3267,
      "WBO": 3268,
      "bU": 3269,
      "cSt": 3270,
      "ven": 3271,
      "ym": 3272,
      "xabTBS": 3273,
      "xafAA": 3274,
      "90100": 3275,
      "atur": 3276,
      "ĠAp": 3277,
      "728": 3278,
      "881982": 3279,
      "ĠWrest": 3280,
      "ĠOff": 3281,
      "agement": 3282,
      "ebook": 3283,
      "ournal": 3284,
      "881869": 3285,
      "881994": 3286,
      "ission": 3287,
      "ritish": 3288,
      "ĠQu": 3289,
      "*\\": 3290,
      ".)": 3291,
      "321": 3292,
      "480": 3293,
      "680": 3294,
      "Ap": 3295,
      "Har": 3296,
      "JBC": 3297,
      "JIS": 3298,
      "VF": 3299,
      "XP": 3300,
      "bFC": 3301,
      "den": 3302,
      "fUEFA": 3303,
      "ios": 3304,
      "811874": 3305,
      "821897": 3306,
      "418": 3307,
      "ĠGo": 3308,
      "ANT": 3309,
      "ISC": 3310,
      "obal": 3311,
      "881969": 3312,
      "1883": 3313,
      "EO": 3314,
      "ais": 3315,
      "cZ": 3316,
      "cess": 3317,
      "iro": 3318,
      "lish": 3319,
      "mas": 3320,
      "nm": 3321,
      "rush": 3322,
      "yth": 3323,
      "xaeAAA": 3324,
      "xbbV": 3325,
      "866": 3326,
      "821895": 3327,
      "165": 3328,
      "reg": 3329,
      "dex": 3330,
      "881983": 3331,
      "881992": 3332,
      "ape": 3333,
      "Ġcl": 3334,
      "ĠKing": 3335,
      "ORTS": 3336,
      "1867": 3337,
      "821904": 3338,
      "ĠYork": 3339,
      "ĠSport": 3340,
      "anced": 3341,
      "urope": 3342,
      "ĠEngine": 3343,
      "ĠWrestling": 3344,
      "!!!\\": 3345,
      "515": 3346,
      "614": 3347,
      "En": 3348,
      "HDD": 3349,
      "JCT": 3350,
      "Wi": 3351,
      "eTV": 3352,
      "ule": 3353,
      "}{": 3354,
      "Ġar": 3355,
      "Ġ2018": 3356,
      "8235": 3357,
      "xaeIC": 3358,
      "891996": 3359,
      "8435": 3360,
      "RATION": 3361,
      "Ġbl": 3362,
      "88147": 3363,
      "ĠSong": 3364,
      "read": 3365,
      "acebook": 3366,
      "ĠRock": 3367,
      "ouis": 3368,
      "amil": 3369,
      "233": 3370,
      "881981": 3371,
      "Ġint": 3372,
      "angu": 3373,
      "ĠArch": 3374,
      "Blue": 3375,
      "frac": 3376,
      "oseph": 3377,
      "012": 3378,
      "1848": 3379,
      "7000": 3380,
      "Bar": 3381,
      "COM": 3382,
      "EG": 3383,
      "LR": 3384,
      "bE": 3385,
      "nUFC": 3386,
      "ois": 3387,
      "td": 3388,
      "9312": 3389,
      "9031": 3390,
      "811881": 3391,
      "881872": 3392,
      "atic": 3393,
      "ĠCON": 3394,
      "8133": 3395,
      "ANN": 3396,
      "ope": 3397,
      "ISDN": 3398,
      "ney": 3399,
      "iki": 3400,
      "PGA": 3401,
      "ĠProject": 3402,
      "ahn": 3403,
      "OVIE": 3404,
      "atoes": 3405,
      "ĠScience": 3406,
      "ĠTomatoes": 3407,
      "ĠService": 3408,
      "ichael": 3409,
      "521": 3410,
      "Ant": 3411,
      "DM": 3412,
      "Dr": 3413,
      "PT": 3414,
      "UST": 3415,
      "mar": 3416,
      "xabE": 3417,
      "xabN": 3418,
      "xabGP": 3419,
      "8924": 3420,
      "965": 3421,
      "8500": 3422,
      "811882": 3423,
      "81160": 3424,
      "811893": 3425,
      "175": 3426,
      "ĠCV": 3427,
      "8138": 3428,
      "ross": 3429,
      "ĠFOR": 3430,
      "ĠRadio": 3431,
      "ĠHall": 3432,
      "Ġdie": 3433,
      "ORY": 3434,
      "881867": 3435,
      "EURO": 3436,
      "Ġcomp": 3437,
      "ĠNetwork": 3438,
      "050": 3439,
      "420": 3440,
      "62007": 3441,
      "735": 3442,
      "All": 3443,
      "QS": 3444,
      "aL": 3445,
      "aff": 3446,
      "bW": 3447,
      "cf": 3448,
      "cFC": 3449,
      "face": 3450,
      "imm": 3451,
      "ras": 3452,
      "ract": 3453,
      "va": 3454,
      "web": 3455,
      "836": 3456,
      "xbcII": 3457,
      "8845": 3458,
      "xafY": 3459,
      "84150": 3460,
      "ĠAt": 3461,
      "ĠGmbH": 3462,
      "ures": 3463,
      "riend": 3464,
      "ANG": 3465,
      "1863": 3466,
      "821902": 3467,
      "SUV": 3468,
      "Charles": 3469,
      "witch": 3470,
      "Ġthat": 3471,
      "621": 3472,
      "Car": 3473,
      "For": 3474,
      "USE": 3475,
      "car": 3476,
      "nim": 3477,
      "sa": 3478,
      "zy": 3479,
      "Ġu": 3480,
      "8144": 3481,
      "xaeY": 3482,
      "97400": 3483,
      "811891": 3484,
      "811873": 3485,
      "811876": 3486,
      "1241": 3487,
      "435": 3488,
      "ales": 3489,
      "ico": 3490,
      "icro": 3491,
      "ĠLaw": 3492,
      "def": 3493,
      "8226": 3494,
      "unk": 3495,
      "add": 3496,
      "8255": 3497,
      "imited": 3498,
      "Ġ3166": 3499,
      "881974": 3500,
      "881978": 3501,
      "ears": 3502,
      "ritic": 3503,
      "iction": 3504,
      "ltimate": 3505,
      "/_": 3506,
      "Be": 3507,
      "Col": 3508,
      "FP": 3509,
      "Man": 3510,
      "RD": 3511,
      "aP": 3512,
      "bN": 3513,
      "pro": 3514,
      "rn": 3515,
      "8175": 3516,
      "xbbO": 3517,
      "867": 3518,
      "ARU": 3519,
      "ĠMet": 3520,
      "8134": 3521,
      "reak": 3522,
      "round": 3523,
      "881987": 3524,
      "usiness": 3525,
      "333": 3526,
      "eder": 3527,
      "ability": 3528,
      "iko": 3529,
      "881972": 3530,
      "881976": 3531,
      "881977": 3532,
      "881864": 3533,
      "--------": 3534,
      "duction": 3535,
      "cademy": 3536,
      "))\\": 3537,
      "511": 3538,
      "FI": 3539,
      "KY": 3540,
      "RR": 3541,
      "SR": 3542,
      "Vo": 3543,
      "fE": 3544,
      "yp": 3545,
      "Ġam": 3546,
      "Ġ27": 3547,
      "xabJR": 3548,
      "892016": 3549,
      "891999": 3550,
      "821896": 3551,
      "ĠCor": 3552,
      "ĠTo": 3553,
      "ĠTer": 3554,
      "ĠBo": 3555,
      "rew": 3556,
      "aca": 3557,
      "ĠDevel": 3558,
      "8228": 3559,
      "ĠWil": 3560,
      "urv": 3561,
      "Ġfl": 3562,
      "812020": 3563,
      "821860": 3564,
      "oftware": 3565,
      "Gu": 3566,
      "James": 3567,
      "MAN": 3568,
      "We": 3569,
      "bL": 3570,
      "uff": 3571,
      "}\\\\": 3572,
      "Ġare": 3573,
      "8490": 3574,
      "209": 3575,
      "81165": 3576,
      "811871": 3577,
      "417": 3578,
      "ani": 3579,
      "127": 3580,
      "aria": 3581,
      "133": 3582,
      "ices": 3583,
      "ĠREC": 3584,
      "ĠHar": 3585,
      "734": 3586,
      "7300": 3587,
      "Ġcap": 3588,
      "aby": 3589,
      "821901": 3590,
      "881966": 3591,
      "881968": 3592,
      "ucation": 3593,
      "iversary": 3594,
      "eath": 3595,
      "Se": 3596,
      "Sm": 3597,
      "Video": 3598,
      "WHO": 3599,
      "bK": 3600,
      "bj": 3601,
      "bs": 3602,
      "cJR": 3603,
      "fU": 3604,
      "fNHK": 3605,
      "nDVD": 3606,
      "pH": 3607,
      "vi": 3608,
      "xabZ": 3609,
      "xafPC": 3610,
      "89200": 3611,
      "RAD": 3612,
      "207": 3613,
      "811870": 3614,
      "451": 3615,
      "131": 3616,
      "8136": 3617,
      "ĠBEST": 3618,
      "ĠPort": 3619,
      "252": 3620,
      "ĠFM": 3621,
      "oud": 3622,
      "231": 3623,
      "Ġsc": 3624,
      "ague": 3625,
      "ndroid": 3626,
      "OMIC": 3627,
      "OUND": 3628,
      "881971": 3629,
      "881964": 3630,
      "881965": 3631,
      "881967": 3632,
      "ichard": 3633,
      "xaeDNA": 3634,
      "MCA": 3635,
      "Univers": 3636,
      "ĠBlue": 3637,
      "0100": 3638,
      "323": 3639,
      "AO": 3640,
      "DL": 3641,
      "SNS": 3642,
      "oor": 3643,
      "Ġ1999": 3644,
      "8010": 3645,
      "xaeOS": 3646,
      "xafTV": 3647,
      "891945": 3648,
      "xbbDVD": 3649,
      "9211": 3650,
      "9250": 3651,
      "869": 3652,
      "821884": 3653,
      "001": 3654,
      "ĠSing": 3655,
      "ĠBOX": 3656,
      "881590": 3657,
      "ĠPer": 3658,
      "elf": 3659,
      "els": 3660,
      "acritic": 3661,
      "881984": 3662,
      "ĠWeb": 3663,
      "rail": 3664,
      "Ġmod": 3665,
      "ĠOut": 3666,
      "osp": 3667,
      "843000": 3668,
      "OWER": 3669,
      "Phil": 3670,
      "516": 3671,
      "530": 3672,
      "62000": 3673,
      "62004": 3674,
      "770": 3675,
      ">_": 3676,
      "DK": 3677,
      "VT": 3678,
      "_(": 3679,
      "aJ": 3680,
      "bDVD": 3681,
      "mag": 3682,
      "ude": 3683,
      "xx": 3684,
      "yt": 3685,
      "8270": 3686,
      "xbcm": 3687,
      "9711": 3688,
      "868": 3689,
      "811887": 3690,
      "811875": 3691,
      "anz": 3692,
      "154": 3693,
      "alth": 3694,
      "ĠSw": 3695,
      "ĠCoun": 3696,
      "ĠAnt": 3697,
      "ĠTO": 3698,
      "elt": 3699,
      "ette": 3700,
      "asp": 3701,
      "ĠHouse": 3702,
      "ĠEv": 3703,
      "ume": 3704,
      "ocial": 3705,
      "Inter": 3706,
      "881945": 3707,
      "BEST": 3708,
      "force": 3709,
      "oundation": 3710,
      "SMAP": 3711,
      "Amazon": 3712,
      "David": 3713,
      "ILE": 3714,
      "OEM": 3715,
      "Robert": 3716,
      "aLAN": 3717,
      "nCD": 3718,
      "uter": 3719,
      "Ġac": 3720,
      "xaeWindows": 3721,
      "xabDVD": 3722,
      "8860": 3723,
      "970": 3724,
      "xbbU": 3725,
      "ARI": 3726,
      "811877": 3727,
      "442": 3728,
      "ori": 3729,
      "ĠMin": 3730,
      "ĠTrans": 3731,
      "229": 3732,
      "626": 3733,
      "8229": 3734,
      "agen": 3735,
      "ima": 3736,
      "ATA": 3737,
      "GPU": 3738,
      "1859": 3739,
      "ibr": 3740,
      "ext": 3741,
      "ynam": 3742,
      "ĠRECOR": 3743,
      "011": 3744,
      "213": 3745,
      "2100": 3746,
      "62011": 3747,
      "ENE": 3748,
      "LM": 3749,
      "MJ": 3750,
      "Min": 3751,
      "SX": 3752,
      "Visual": 3753,
      "aD": 3754,
      "gy": 3755,
      "ji": 3756,
      "ness": 3757,
      "rick": 3758,
      "ĠRA": 3759,
      "ĠON": 3760,
      "8147": 3761,
      "xbcDS": 3762,
      "891989": 3763,
      "95100": 3764,
      "206": 3765,
      "821892": 3766,
      "ĠSl": 3767,
      "138": 3768,
      "303": 3769,
      "ĠAND": 3770,
      "254": 3771,
      "232": 3772,
      "ded": 3773,
      "738": 3774,
      "rike": 3775,
      "ATT": 3776,
      "emp": 3777,
      "ACT": 3778,
      "aki": 3779,
      "PSP": 3780,
      "ible": 3781,
      "=\\\\": 3782,
      "merica": 3783,
      "attle": 3784,
      "useum": 3785,
      ".\"": 3786,
      "1820": 3787,
      "987": 3788,
      "Billboard": 3789,
      "FIA": 3790,
      "GEN": 3791,
      "JAPAN": 3792,
      "Or": 3793,
      "ZA": 3794,
      "aK": 3795,
      "ball": 3796,
      "fH": 3797,
      "pa": 3798,
      "ues": 3799,
      "vis": 3800,
      "Ġ80": 3801,
      "Ġge": 3802,
      "Ġ}_": 3803,
      "8280": 3804,
      "8290": 3805,
      "891998": 3806,
      "9311": 3807,
      "NEXT": 3808,
      "811892": 3809,
      "ati": 3810,
      "ĠCL": 3811,
      "ĠMY": 3812,
      "ĠTOK": 3813,
      "ely": 3814,
      "729": 3815,
      "unn": 3816,
      "754": 3817,
      "opment": 3818,
      "ĠStar": 3819,
      "ĠYour": 3820,
      "84600": 3821,
      "881862": 3822,
      "881865": 3823,
      "TRPG": 3824,
      "rown": 3825,
      "WORK": 3826,
      "++\\": 3827,
      "://": 3828,
      "FN": 3829,
      "SW": 3830,
      "bH": 3831,
      "vanced": 3832,
      "zh": 3833,
      "Ġ26": 3834,
      "ĠNEWS": 3835,
      "81800": 3836,
      "838": 3837,
      "892017": 3838,
      "891993": 3839,
      "xbbN": 3840,
      "8445": 3841,
      "STAR": 3842,
      "RAN": 3843,
      "811872": 3844,
      "88146": 3845,
      "oria": 3846,
      "134": 3847,
      "ĠCal": 3848,
      "501": 3849,
      "ĠMat": 3850,
      "251": 3851,
      "ĠFEST": 3852,
      "ĠFINAL": 3853,
      "ĠDE": 3854,
      "ĠGirls": 3855,
      "BSC": 3856,
      "ĠOffice": 3857,
      "2700": 3858,
      "obe": 3859,
      "cCh": 3860,
      "iana": 3861,
      "IMA": 3862,
      "ohann": 3863,
      "IVAL": 3864,
      "Ġret": 3865,
      "NETWORK": 3866,
      "erfect": 3867,
      "->": 3868,
      "513": 3869,
      "619": 3870,
      "623": 3871,
      "62012": 3872,
      "986": 3873,
      "Bellator": 3874,
      "Can": 3875,
      "FOR": 3876,
      "PB": 3877,
      "RIDE": 3878,
      "SHI": 3879,
      "eX": 3880,
      "ker": 3881,
      "ken": 3882,
      "uild": 3883,
      "well": 3884,
      "Ġ35": 3885,
      "Ġim": 3886,
      "Ġ978": 3887,
      "8195": 3888,
      "xbcV": 3889,
      "xafRPG": 3890,
      "8418": 3891,
      "941": 3892,
      "429": 3893,
      "161": 3894,
      "8137": 3895,
      "ĠBest": 3896,
      "223": 3897,
      "257": 3898,
      "ouble": 3899,
      "ĠDon": 3900,
      "ĠDVD": 3901,
      "oman": 3902,
      "ington": 3903,
      "736": 3904,
      "Ġmy": 3905,
      "634": 3906,
      "riv": 3907,
      "264": 3908,
      "iron": 3909,
      "utsch": 3910,
      "SAM": 3911,
      "AME": 3912,
      "IDS": 3913,
      "ITY": 3914,
      "Ġnot": 3915,
      "Paul": 3916,
      "\",": 3917,
      "()": 3918,
      "CW": 3919,
      "Ge": 3920,
      "On": 3921,
      "RB": 3922,
      "RM": 3923,
      "WHIP": 3924,
      "aF": 3925,
      "bar": 3926,
      "eal": 3927,
      "nFC": 3928,
      "Ġ,": 3929,
      "8146": 3930,
      "9720": 3931,
      "xafUEFA": 3932,
      "891994": 3933,
      "960": 3934,
      "ARC": 3935,
      "81155": 3936,
      "811861": 3937,
      "821899": 3938,
      "129": 3939,
      "aris": 3940,
      "ĠMOVIE": 3941,
      "ĠAre": 3942,
      "ĠAcademy": 3943,
      "ĠTokyo": 3944,
      "ĠBer": 3945,
      "ĠFilm": 3946,
      "ilit": 3947,
      "ĠRiver": 3948,
      "unction": 3949,
      "8164": 3950,
      "uman": 3951,
      "idd": 3952,
      "ops": 3953,
      "ĠUS": 3954,
      "ĠStates": 3955,
      "estival": 3956,
      "ainment": 3957,
      "OWOW": 3958,
      "DDT": 3959,
      "action": 3960,
      "811860": 3961,
      "ĠManagement": 3962,
      "ĠSystems": 3963,
      "iPad": 3964,
      "ĠRECORDS": 3965,
      "370": 3966,
      "Book": 3967,
      "EK": 3968,
      "JK": 3969,
      "Mr": 3970,
      "Nd": 3971,
      "OO": 3972,
      "Ser": 3973,
      "WRC": 3974,
      "fUFC": 3975,
      "gr": 3976,
      "ho": 3977,
      "night": 3978,
      "wa": 3979,
      "Ġ1980": 3980,
      "Ġ1993": 3981,
      "Ġ1984": 3982,
      "8143": 3983,
      "xbcX": 3984,
      "891997": 3985,
      "8424": 3986,
      "9217": 3987,
      "9510": 3988,
      "9345": 3989,
      "9340": 3990,
      "STV": 3991,
      "203": 3992,
      "821875": 3993,
      "821870": 3994,
      "8835": 3995,
      "rey": 3996,
      "ĠPC": 3997,
      "226": 3998,
      "ĠROCK": 3999,
      "237": 4000,
      "rade": 4001,
      "ĠNe": 4002,
      "ĠOper": 4003,
      "ters": 4004,
      "urt": 4005,
      "ria": 4006,
      "ANCE": 4007,
      "Ġda": 4008,
      "ATV": 4009,
      "aver": 4010,
      "Star": 4011,
      "AMP": 4012,
      "ĠĠĠĠĠĠĠĠĠĠĠ": 4013,
      "WAVE": 4014,
      "1858": 4015,
      "IGH": 4016,
      "ĠBlack": 4017,
      "macs": 4018,
      "ĠISBN": 4019,
      "260": 4020,
      "62010": 4021,
      "670": 4022,
      "745": 4023,
      "FDA": 4024,
      "GPS": 4025,
      "JP": 4026,
      "Jean": 4027,
      "LY": 4028,
      "Si": 4029,
      "kl": 4030,
      "nY": 4031,
      "ser": 4032,
      "vo": 4033,
      "891992": 4034,
      "891991": 4035,
      "84800": 4036,
      "8720": 4037,
      "881931": 4038,
      "inter": 4039,
      "ones": 4040,
      "alm": 4041,
      "ating": 4042,
      "ĠShe": 4043,
      "ĠBook": 4044,
      "881573": 4045,
      "253": 4046,
      "ĠFin": 4047,
      "234": 4048,
      "8155": 4049,
      "ĠNorth": 4050,
      "655": 4051,
      "BAS": 4052,
      "ider": 4053,
      "opp": 4054,
      "OSHI": 4055,
      "htt": 4056,
      "881863": 4057,
      "Christ": 4058,
      "azz": 4059,
      "LAY": 4060,
      "ĠArts": 4061,
      "ĠAlbum": 4062,
      "ĠPhil": 4063,
      "ĠTOKYO": 4064,
      "62003": 4065,
      "ASA": 4066,
      "American": 4067,
      "IB": 4068,
      "IO": 4069,
      "aW": 4070,
      "gan": 4071,
      "ih": 4072,
      "sq": 4073,
      "Ġ1990": 4074,
      "Ġ1994": 4075,
      "xabAV": 4076,
      "8960": 4077,
      "xbbJR": 4078,
      "8711": 4079,
      "NEX": 4080,
      "202": 4081,
      "81250": 4082,
      "425": 4083,
      "ĠMark": 4084,
      "lev": 4085,
      "ĠBank": 4086,
      "ĠLine": 4087,
      "ĠLtd": 4088,
      "ĠGr": 4089,
      "omen": 4090,
      "731": 4091,
      "81600": 4092,
      "rab": 4093,
      "ado": 4094,
      "7400": 4095,
      "ECI": 4096,
      "1852": 4097,
      "881963": 4098,
      "ender": 4099,
      "GBT": 4100,
      "PRIDE": 4101,
      "xaeOEM": 4102,
      "Metacritic": 4103,
      "ĠAnniversary": 4104,
      "ĠCounty": 4105,
      "013": 4106,
      "1847": 4107,
      "523": 4108,
      "632": 4109,
      "LUE": 4110,
      "Live": 4111,
      "Mon": 4112,
      "day": 4113,
      "nThe": 4114,
      "ua": 4115,
      "uy": 4116,
      "Ġ2019": 4117,
      "8172": 4118,
      "xbcJ": 4119,
      "9216": 4120,
      "9225": 4121,
      "93100": 4122,
      "8712": 4123,
      "SEED": 4124,
      "881870": 4125,
      "4100": 4126,
      "enry": 4127,
      "arth": 4128,
      "153": 4129,
      "455": 4130,
      "ĠSoul": 4131,
      "1776": 4132,
      "ester": 4133,
      "ĠCamp": 4134,
      "itch": 4135,
      "lection": 4136,
      "ĠPrin": 4137,
      "222": 4138,
      "road": 4139,
      "rome": 4140,
      "oly": 4141,
      "ask": 4142,
      "352": 4143,
      "other": 4144,
      "8970": 4145,
      "ocal": 4146,
      "ids": 4147,
      "ident": 4148,
      "881866": 4149,
      "ĠkW": 4150,
      "prise": 4151,
      "IEEE": 4152,
      "schaft": 4153,
      "iPod": 4154,
      "ĠSPORTS": 4155,
      "anguage": 4156,
      "148": 4157,
      "1846": 4158,
      "GR": 4159,
      "George": 4160,
      "craft": 4161,
      "iet": 4162,
      "ient": 4163,
      "ror": 4164,
      "sl": 4165,
      "Ġ70": 4166,
      "xabI": 4167,
      "996": 4168,
      "xacGP": 4169,
      "8716": 4170,
      "872000": 4171,
      "208": 4172,
      "881858": 4173,
      "821893": 4174,
      "821878": 4175,
      "ona": 4176,
      "126": 4177,
      "422": 4178,
      "136": 4179,
      "ĠMont": 4180,
      "ĠPa": 4181,
      "ĠPat": 4182,
      "eld": 4183,
      "ĠFre": 4184,
      "ĠFoundation": 4185,
      "ury": 4186,
      "aker": 4187,
      "PCI": 4188,
      "cBl": 4189,
      "1854": 4190,
      "1855": 4191,
      "xaeFIFA": 4192,
      "onda": 4193,
      "xaeGI": 4194,
      "ĠClass": 4195,
      "ĠTechnology": 4196,
      "ĠFESTIVAL": 4197,
      "1815": 4198,
      "DT": 4199,
      "MK": 4200,
      "Oper": 4201,
      "QL": 4202,
      "Ray": 4203,
      "cp": 4204,
      "cSA": 4205,
      "men": 4206,
      "wood": 4207,
      "xaeTBS": 4208,
      "xaeIP": 4209,
      "xafAAA": 4210,
      "891987": 4211,
      "959": 4212,
      "STER": 4213,
      "811500": 4214,
      "821861": 4215,
      "821879": 4216,
      "432": 4217,
      "439": 4218,
      "arch": 4219,
      "8832": 4220,
      "424": 4221,
      "305": 4222,
      "ison": 4223,
      "itte": 4224,
      "hed": 4225,
      "ĠPIEC": 4226,
      "omy": 4227,
      "8151": 4228,
      "ĠHE": 4229,
      "336": 4230,
      "755": 4231,
      "6500": 4232,
      "rip": 4233,
      "ady": 4234,
      "2600": 4235,
      "ember": 4236,
      "ocol": 4237,
      "ITS": 4238,
      "ECT": 4239,
      "SPD": 4240,
      "OCAL": 4241,
      "1856": 4242,
      "881962": 4243,
      "Ġex": 4244,
      "811866": 4245,
      "ugust": 4246,
      "ĠPlayer": 4247,
      "rikeforce": 4248,
      "015": 4249,
      "262": 4250,
      "517": 4251,
      "Hi": 4252,
      "Her": 4253,
      "RKO": 4254,
      "WEC": 4255,
      "\\'\\": 4256,
      "aT": 4257,
      "bIC": 4258,
      "eZ": 4259,
      "fX": 4260,
      "gar": 4261,
      "nWindows": 4262,
      "nWeb": 4263,
      "Ġ45": 4264,
      "Ġif": 4265,
      "Ġ1945": 4266,
      "839": 4267,
      "xaeFA": 4268,
      "8990": 4269,
      "990": 4270,
      "811879": 4271,
      "821873": 4272,
      "alue": 4273,
      "476": 4274,
      "167": 4275,
      "ĠMk": 4276,
      "ste": 4277,
      "ould": 4278,
      "ĠDD": 4279,
      "ĠLab": 4280,
      "ĠLight": 4281,
      "8161": 4282,
      "uring": 4283,
      "ump": 4284,
      "768": 4285,
      "xaeMC": 4286,
      "nect": 4287,
      "ASMO": 4288,
      "Ġwe": 4289,
      "ours": 4290,
      "ians": 4291,
      "DAY": 4292,
      "AKI": 4293,
      "MENT": 4294,
      "Ġres": 4295,
      "NCAA": 4296,
      "ighter": 4297,
      "Suica": 4298,
      "ification": 4299,
      "ĠCouncil": 4300,
      "\")": 4301,
      "635": 4302,
      "GL": 4303,
      "LF": 4304,
      "MW": 4305,
      "NI": 4306,
      "PTA": 4307,
      "YU": 4308,
      "col": 4309,
      "Ġ...": 4310,
      "9326": 4311,
      "TIC": 4312,
      "881890": 4313,
      "82150": 4314,
      "erd": 4315,
      "als": 4316,
      "atal": 4317,
      "ĠSuper": 4318,
      "iter": 4319,
      "ĠMart": 4320,
      "ĠAmerica": 4321,
      "ĠPRO": 4322,
      "401": 4323,
      "881615": 4324,
      "238": 4325,
      "uto": 4326,
      "overn": 4327,
      "aku": 4328,
      "iller": 4329,
      "iff": 4330,
      "ift": 4331,
      "ques": 4332,
      "RCA": 4333,
      "ruct": 4334,
      "881950": 4335,
      "ierre": 4336,
      "xaeTwitter": 4337,
      "fessional": 4338,
      "ĠDevelopment": 4339,
      "1840": 4340,
      "62014": 4341,
      "787": 4342,
      "At": 4343,
      "FD": 4344,
      "Ka": 4345,
      "Max": 4346,
      "QR": 4347,
      "TB": 4348,
      "aH": 4349,
      "aR": 4350,
      "bI": 4351,
      "bject": 4352,
      "cap": 4353,
      "ele": 4354,
      "mand": 4355,
      "nISO": 4356,
      "Ġ1995": 4357,
      "Ġ1986": 4358,
      "891950": 4359,
      "8423": 4360,
      "9245": 4361,
      "961": 4362,
      "811878": 4363,
      "ĠSouth": 4364,
      "ĠCup": 4365,
      "ĠBay": 4366,
      "ĠPre": 4367,
      "ĠID": 4368,
      "rix": 4369,
      "irt": 4370,
      "82500": 4371,
      "umb": 4372,
      "oca": 4373,
      "ida": 4374,
      "ople": 4375,
      "IND": 4376,
      "REE": 4377,
      "ips": 4378,
      "SPN": 4379,
      "ĠĠĠĠĠĠĠĠĠ": 4380,
      "iano": 4381,
      "oney": 4382,
      "ĠXP": 4383,
      "aux": 4384,
      "IRLS": 4385,
      "awa": 4386,
      "ĠUnited": 4387,
      "Art": 4388,
      "helm": 4389,
      "DHCP": 4390,
      "ĠHistory": 4391,
      "ĠPIECE": 4392,
      "519": 4393,
      "514": 4394,
      "62001": 4395,
      "72010": 4396,
      "AH": 4397,
      "As": 4398,
      "Ale": 4399,
      "Ex": 4400,
      "RW": 4401,
      "UMP": 4402,
      "Win": 4403,
      "ban": 4404,
      "cRE": 4405,
      "dom": 4406,
      "dEMI": 4407,
      "field": 4408,
      "mazon": 4409,
      "oD": 4410,
      "oa": 4411,
      "war": 4412,
      "Ġag": 4413,
      "Ġ1997": 4414,
      "Ġ1991": 4415,
      "xaeUFC": 4416,
      "8922": 4417,
      "892018": 4418,
      "9240": 4419,
      "xacI": 4420,
      "8799": 4421,
      "821891": 4422,
      "enz": 4423,
      "477": 4424,
      "ĠSk": 4425,
      "137": 4426,
      "itect": 4427,
      "ĠAS": 4428,
      "led": 4429,
      "stein": 4430,
      "ĠBr": 4431,
      "255": 4432,
      "ĠRem": 4433,
      "ĠDream": 4434,
      "638": 4435,
      "ots": 4436,
      "urr": 4437,
      "urs": 4438,
      "ĠStory": 4439,
      "ief": 4440,
      "Strikeforce": 4441,
      "AMI": 4442,
      "ROSS": 4443,
      "Ġver": 4444,
      "NTER": 4445,
      "ĠYOU": 4446,
      "ourt": 4447,
      "cDeNA": 4448,
      "881957": 4449,
      "881946": 4450,
      "pring": 4451,
      "ologie": 4452,
      "sport": 4453,
      "ography": 4454,
      "540": 4455,
      "747": 4456,
      "989": 4457,
      ";;": 4458,
      "Ag": 4459,
      "ASE": 4460,
      "Ass": 4461,
      "GV": 4462,
      "Gi": 4463,
      "IRE": 4464,
      "Me": 4465,
      "Rev": 4466,
      "SG": 4467,
      "TU": 4468,
      "UV": 4469,
      "WER": 4470,
      "Yahoo": 4471,
      "aN": 4472,
      "der": 4473,
      "eel": 4474,
      "fAT": 4475,
      "iD": 4476,
      "log": 4477,
      "pos": 4478,
      "tv": 4479,
      "8232": 4480,
      "891930": 4481,
      "8713": 4482,
      "821886": 4483,
      "444": 4484,
      "atus": 4485,
      "421": 4486,
      "463": 4487,
      "169": 4488,
      "1795": 4489,
      "139": 4490,
      "stand": 4491,
      "ĠBE": 4492,
      "881575": 4493,
      "239": 4494,
      "602": 4495,
      "ĠIV": 4496,
      "ĠEX": 4497,
      "331": 4498,
      "758": 4499,
      "Ġman": 4500,
      "urity": 4501,
      "Ġfeat": 4502,
      "ther": 4503,
      "BASE": 4504,
      "ĠStandard": 4505,
      "778": 4506,
      "ews": 4507,
      "EDGE": 4508,
      "ological": 4509,
      "hys": 4510,
      "ildren": 4511,
      "otoGP": 4512,
      "ĠOnline": 4513,
      "ibrary": 4514,
      "1821": 4515,
      "1814": 4516,
      "645": 4517,
      "62005": 4518,
      "732": 4519,
      "Don": 4520,
      "Pe": 4521,
      "RF": 4522,
      "Time": 4523,
      "cDVD": 4524,
      "eU": 4525,
      "nZ": 4526,
      "uke": 4527,
      "vol": 4528,
      "viron": 4529,
      "Ġup": 4530,
      "8011": 4531,
      "xabNBA": 4532,
      "xbchr": 4533,
      "9750": 4534,
      "891986": 4535,
      "90400": 4536,
      "8610": 4537,
      "881873": 4538,
      "881929": 4539,
      "821887": 4540,
      "821888": 4541,
      "821872": 4542,
      "821877": 4543,
      "xdb": 4544,
      "433": 4545,
      "ather": 4546,
      "465": 4547,
      "163": 4548,
      "307": 4549,
      "ities": 4550,
      "ĠFestival": 4551,
      "acle": 4552,
      "ough": 4553,
      "ĠDance": 4554,
      "ĠGirl": 4555,
      "ĠWest": 4556,
      "6300": 4557,
      "657": 4558,
      "ĠJournal": 4559,
      "84120": 4560,
      "ules": 4561,
      "antas": 4562,
      "881960": 4563,
      "intend": 4564,
      "IRL": 4565,
      "881939": 4566,
      "ĠEducation": 4567,
      "ĠLeague": 4568,
      "appy": 4569,
      ".\"\\": 4570,
      "1812": 4571,
      "244": 4572,
      "485": 4573,
      "Ger": 4574,
      "Il": 4575,
      "KEN": 4576,
      "Mag": 4577,
      "MBA": 4578,
      "OTO": 4579,
      "PD": 4580,
      "PN": 4581,
      "Rock": 4582,
      "TNA": 4583,
      "aV": 4584,
      "bO": 4585,
      "gg": 4586,
      "lo": 4587,
      "ville": 4588,
      "Ġ1989": 4589,
      "xabX": 4590,
      "9715": 4591,
      "xafSS": 4592,
      "8650": 4593,
      "ARM": 4594,
      "PHS": 4595,
      "81114": 4596,
      "811850": 4597,
      "881884": 4598,
      "821881": 4599,
      "821885": 4600,
      "82170": 4601,
      "erc": 4602,
      "475": 4603,
      "ĠSal": 4604,
      "466": 4605,
      "168": 4606,
      "ĠCO": 4607,
      "ĠCons": 4608,
      "302": 4609,
      "502": 4610,
      "ĠMuseum": 4611,
      "881580": 4612,
      "amm": 4613,
      "ĠGold": 4614,
      "ĠGreen": 4615,
      "oma": 4616,
      "ĠWilliam": 4617,
      "637": 4618,
      "irit": 4619,
      "even": 4620,
      "range": 4621,
      "Intel": 4622,
      "1853": 4623,
      "ĠProgram": 4624,
      "azine": 4625,
      "plic": 4626,
      "ĠSpecial": 4627,
      "522": 4628,
      "525": 4629,
      "690": 4630,
      "61998": 4631,
      "762": 4632,
      "733": 4633,
      "FG": 4634,
      "Go": 4635,
      "Peter": 4636,
      "Reg": 4637,
      "Richard": 4638,
      "UNA": 4639,
      "UDIO": 4640,
      "cg": 4641,
      "fCM": 4642,
      "hat": 4643,
      "ious": 4644,
      "van": 4645,
      "yr": 4646,
      "Ġ55": 4647,
      "Ġ1992": 4648,
      "8923": 4649,
      "891975": 4650,
      "9321": 4651,
      "940": 4652,
      "881920": 4653,
      "821876": 4654,
      "419": 4655,
      "ering": 4656,
      "157": 4657,
      "164": 4658,
      "ĠCast": 4659,
      "ĠMor": 4660,
      "ĠMot": 4661,
      "ĠMod": 4662,
      "ston": 4663,
      "ĠPal": 4664,
      "acintosh": 4665,
      "ilver": 4666,
      "etter": 4667,
      "ĠRO": 4668,
      "ĠRed": 4669,
      "ĠRoad": 4670,
      "627": 4671,
      "ĠElect": 4672,
      "356": 4673,
      "igen": 4674,
      "igital": 4675,
      "ĠNT": 4676,
      "636": 4677,
      "Ġsub": 4678,
      "uture": 4679,
      "377": 4680,
      "ROH": 4681,
      "anta": 4682,
      "ADR": 4683,
      "ĠChurch": 4684,
      "xaeAV": 4685,
      "manaca": 4686,
      "ondon": 4687,
      "881951": 4688,
      "881941": 4689,
      "come": 4690,
      "United": 4691,
      "ference": 4692,
      "72007": 4693,
      "GDP": 4694,
      "Johann": 4695,
      "KC": 4696,
      "KT": 4697,
      "San": 4698,
      "XE": 4699,
      "YE": 4700,
      "hi": 4701,
      "las": 4702,
      "lich": 4703,
      "tainment": 4704,
      "ucc": 4705,
      "{\\\\": 4706,
      "Ġed": 4707,
      "Ġ1987": 4708,
      "8181": 4709,
      "8148": 4710,
      "xbbI": 4711,
      "xbbBS": 4712,
      "9327": 4713,
      "967": 4714,
      "942": 4715,
      "RAG": 4716,
      "811848": 4717,
      "881881": 4718,
      "881901": 4719,
      "821882": 4720,
      "821894": 4721,
      "821874": 4722,
      "159": 4723,
      "ĠSoftware": 4724,
      "ĠBusiness": 4725,
      "ĠPres": 4726,
      "ĠPublic": 4727,
      "ĠFirst": 4728,
      "ĠLittle": 4729,
      "omic": 4730,
      "Ġte": 4731,
      "ĠNATO": 4732,
      "utom": 4733,
      "ctor": 4734,
      "Ġcol": 4735,
      "Ġdef": 4736,
      "IDI": 4737,
      "ADA": 4738,
      "IMF": 4739,
      "1851": 4740,
      "OPBF": 4741,
      "1839": 4742,
      "881954": 4743,
      "811864": 4744,
      "DCG": 4745,
      "ĠTeam": 4746,
      "afe": 4747,
      "AGEs": 4748,
      "aurus": 4749,
      "vironment": 4750,
      "188": 4751,
      "325": 4752,
      "62008": 4753,
      "62002": 4754,
      "790": 4755,
      "7150": 4756,
      "AW": 4757,
      "CBC": 4758,
      "Carl": 4759,
      "Do": 4760,
      "OID": 4761,
      "Par": 4762,
      "WX": 4763,
      "XL": 4764,
      "ben": 4765,
      "cST": 4766,
      "cYou": 4767,
      "fJR": 4768,
      "nam": 4769,
      "rue": 4770,
      "sen": 4771,
      "uit": 4772,
      "Ġ#": 4773,
      "Ġ95": 4774,
      "Ġ44": 4775,
      "Ġus": 4776,
      "Ġ1970": 4777,
      "Ġ1996": 4778,
      "8141": 4779,
      "xaeSS": 4780,
      "xaeAC": 4781,
      "xaeUS": 4782,
      "9224": 4783,
      "90200": 4784,
      "81117": 4785,
      "881874": 4786,
      "881900": 4787,
      "inus": 4788,
      "158": 4789,
      "454": 4790,
      "ĠSy": 4791,
      "ĠSUN": 4792,
      "ĠCD": 4793,
      "icus": 4794,
      "ĠBel": 4795,
      "ĠFire": 4796,
      "ĠFighter": 4797,
      "acing": 4798,
      "ĠLinux": 4799,
      "ĠGames": 4800,
      "chi": 4801,
      "chen": 4802,
      "88500": 4803,
      "ĠHol": 4804,
      "8926": 4805,
      "8928": 4806,
      "71000": 4807,
      "ĠNO": 4808,
      "ĠNav": 4809,
      "rie": 4810,
      "imes": 4811,
      "aph": 4812,
      "Ġcan": 4813,
      "ĠUltimate": 4814,
      "erse": 4815,
      "Ġ360": 4816,
      "ĠInt": 4817,
      "OMO": 4818,
      "BOY": 4819,
      "ept": 4820,
      "very": 4821,
      "0747": 4822,
      "1831": 4823,
      "881953": 4824,
      "821863": 4825,
      "NNN": 4826,
      "881930": 4827,
      "Comp": 4828,
      "Script": 4829,
      "Ġnew": 4830,
      "ĠLIFE": 4831,
      "ĠSHOW": 4832,
      "ĠParty": 4833,
      "riedrich": 4834,
      "BASIC": 4835,
      "http": 4836,
      "ECIAL": 4837,
      "014": 4838,
      "62017": 4839,
      "Bank": 4840,
      "INE": 4841,
      "KDDI": 4842,
      "MH": 4843,
      "Royal": 4844,
      "Sal": 4845,
      "Sam": 4846,
      "TX": 4847,
      "Tom": 4848,
      "Torr": 4849,
      "Up": 4850,
      "VO": 4851,
      "cCM": 4852,
      "cip": 4853,
      "cert": 4854,
      "eSt": 4855,
      "len": 4856,
      "oi": 4857,
      "rack": 4858,
      "ten": 4859,
      "vest": 4860,
      "Ġab": 4861,
      "Ġ1998": 4862,
      "Ġob": 4863,
      "891984": 4864,
      "891982": 4865,
      "891944": 4866,
      "xbbIC": 4867,
      "9319": 4868,
      "811840": 4869,
      "ICC": 4870,
      "881927": 4871,
      "156": 4872,
      "176": 4873,
      "1789": 4874,
      "icle": 4875,
      "itan": 4876,
      "ĠMa": 4877,
      "ĠMAX": 4878,
      "ione": 4879,
      "ĠBand": 4880,
      "ela": 4881,
      "ĠFund": 4882,
      "10000": 4883,
      "ĠRel": 4884,
      "ĠDo": 4885,
      "ĠDef": 4886,
      "ĠDirect": 4887,
      "236": 4888,
      "ĠGood": 4889,
      "ĠGeneral": 4890,
      "8158": 4891,
      "ĠHam": 4892,
      "327": 4893,
      "ĠEnd": 4894,
      "ĠWay": 4895,
      "iger": 4896,
      "ĠOR": 4897,
      "653": 4898,
      "ivision": 4899,
      "Ġcont": 4900,
      "ORE": 4901,
      "ROCK": 4902,
      "epp": 4903,
      "1857": 4904,
      "881961": 4905,
      "xaeNWA": 4906,
      "811867": 4907,
      "821862": 4908,
      "821869": 4909,
      "881915": 4910,
      "ĠHeart": 4911,
      "Steam": 4912,
      "uropean": 4913,
      "OSHIKI": 4914,
      "016": 4915,
      "1816": 4916,
      "217": 4917,
      "72000": 4918,
      "ATION": 4919,
      "Disc": 4920,
      "Er": 4921,
      "Grand": 4922,
      "General": 4923,
      "HB": 4924,
      "JC": 4925,
      "Louis": 4926,
      "MY": 4927,
      "MSC": 4928,
      "UL": 4929,
      "WL": 4930,
      "YAM": 4931,
      "bi": 4932,
      "bis": 4933,
      "cIn": 4934,
      "fm": 4935,
      "je": 4936,
      "lor": 4937,
      "mic": 4938,
      "oice": 4939,
      "vel": 4940,
      "wh": 4941,
      "8149": 4942,
      "8247": 4943,
      "xbcn": 4944,
      "xafNTT": 4945,
      "891988": 4946,
      "891968": 4947,
      "891974": 4948,
      "9214": 4949,
      "9333": 4950,
      "881933": 4951,
      "onia": 4952,
      "oriz": 4953,
      "8836": 4954,
      "427": 4955,
      "462": 4956,
      "esc": 4957,
      "isk": 4958,
      "ĠModel": 4959,
      "rov": 4960,
      "ĠLisp": 4961,
      "601": 4962,
      "ĠGod": 4963,
      "326": 4964,
      "ĠWork": 4965,
      "756": 4966,
      "raw": 4967,
      "ĠNIGHT": 4968,
      "BSD": 4969,
      "ĠOpen": 4970,
      "rive": 4971,
      "Ġsystem": 4972,
      "ĠStation": 4973,
      "estra": 4974,
      "new": 4975,
      "ĠInformation": 4976,
      "OMA": 4977,
      "ADE": 4978,
      "xaeCEO": 4979,
      "SUKE": 4980,
      "ryst": 4981,
      "1806": 4982,
      "881947": 4983,
      "OVER": 4984,
      "811865": 4985,
      "821868": 4986,
      "ĠReal": 4987,
      "xbchrer": 4988,
      "0500": 4989,
      "214": 4990,
      "61990": 4991,
      "775": 4992,
      "992": 4993,
      "ANA": 4994,
      "Apple": 4995,
      "EB": 4996,
      "NV": 4997,
      "One": 4998,
      "Pan": 4999,
      "aFC": 5000,
      "bCM": 5001,
      "di": 5002,
      "eFC": 5003,
      "kHz": 5004,
      "lb": 5005,
      "ning": 5006,
      "uis": 5007,
      "Ġ1985": 5008,
      "Ġone": 5009,
      "8193": 5010,
      "8162": 5011,
      "xaeAS": 5012,
      "xaaCD": 5013,
      "8419": 5014,
      "957": 5015,
      "968": 5016,
      "969": 5017,
      "8715": 5018,
      "ARY": 5019,
      "881882": 5020,
      "881924": 5021,
      "821850": 5022,
      "ince": 5023,
      "431": 5024,
      "458": 5025,
      "alter": 5026,
      "ĠSqu": 5027,
      "428": 5028,
      "162": 5029,
      "1790": 5030,
      "ĠCap": 5031,
      "ĠCOL": 5032,
      "304": 5033,
      "str": 5034,
      "227": 5035,
      "228": 5036,
      "259": 5037,
      "1001": 5038,
      "ĠDie": 5039,
      "8153": 5040,
      "ĠExc": 5041,
      "8163": 5042,
      "Ġmag": 5043,
      "Ġmusic": 5044,
      "651": 5045,
      "ivil": 5046,
      "Ġcode": 5047,
      "Ġpe": 5048,
      "Ġpar": 5049,
      "Ġinter": 5050,
      "indow": 5051,
      "xaeMV": 5052,
      "cSF": 5053,
      "Ġno": 5054,
      "ADSL": 5055,
      "ĠYear": 5056,
      "ource": 5057,
      "OUT": 5058,
      "881860": 5059,
      "881861": 5060,
      "ega": 5061,
      "xaePR": 5062,
      "HIRO": 5063,
      "EPA": 5064,
      "881919": 5065,
      "eLa": 5066,
      "ooth": 5067,
      "Ġzu": 5068,
      "ummer": 5069,
      "ĠIndust": 5070,
      "ĠEntertainment": 5071,
      "riends": 5072,
      "OCALOID": 5073,
      "intendo": 5074,
      "030": 5075,
      "1842": 5076,
      "1845": 5077,
      "62013": 5078,
      "62015": 5079,
      "61970": 5080,
      "748": 5081,
      "Bi": 5082,
      "Cal": 5083,
      "It": 5084,
      "KU": 5085,
      "Li": 5086,
      "RX": 5087,
      "UTC": 5088,
      "VOL": 5089,
      "_(\\": 5090,
      "aa": 5091,
      "cus": 5092,
      "cTBS": 5093,
      "eONE": 5094,
      "fter": 5095,
      "ges": 5096,
      "ui": 5097,
      "Ġ90": 5098,
      "Ġ1944": 5099,
      "xaeFM": 5100,
      "9713": 5101,
      "9714": 5102,
      "9740": 5103,
      "972015": 5104,
      "xbbFC": 5105,
      "9260": 5106,
      "8630": 5107,
      "RAY": 5108,
      "881926": 5109,
      "Ġ(-": 5110,
      "457": 5111,
      "471": 5112,
      "423": 5113,
      "177": 5114,
      "178": 5115,
      "1791": 5116,
      "ĠMX": 5117,
      "ĠAcc": 5118,
      "8139": 5119,
      "881584": 5120,
      "881570": 5121,
      "881578": 5122,
      "ĠPop": 5123,
      "acific": 5124,
      "328": 5125,
      "ĠNot": 5126,
      "8231": 5127,
      "278": 5128,
      "iment": 5129,
      "Ġpart": 5130,
      "cept": 5131,
      "RESS": 5132,
      "Ġlove": 5133,
      "eck": 5134,
      "allen": 5135,
      "Ġnm": 5136,
      "ECW": 5137,
      "Internet": 5138,
      "xaeNFL": 5139,
      "881955": 5140,
      "OVW": 5141,
      "ugh": 5142,
      "anna": 5143,
      "ĠShow": 5144,
      "Thomas": 5145,
      "DeNA": 5146,
      "appa": 5147,
      "Quick": 5148,
      "nimoca": 5149,
      "-)\\": 5150,
      "184": 5151,
      "218": 5152,
      "490": 5153,
      "62016": 5154,
      "742": 5155,
      "CON": 5156,
      "Che": 5157,
      "FB": 5158,
      "GHz": 5159,
      "HCP": 5160,
      "IJF": 5161,
      "Krush": 5162,
      "UAE": 5163,
      "Word": 5164,
      "ZR": 5165,
      "ZU": 5166,
      "aPa": 5167,
      "bX": 5168,
      "br": 5169,
      "eep": 5170,
      "fox": 5171,
      "hal": 5172,
      "kbps": 5173,
      "mo": 5174,
      "nTBS": 5175,
      "Ġ}": 5176,
      "Ġ/\\": 5177,
      "Ġad": 5178,
      "Ġ1988": 5179,
      "Ġ1978": 5180,
      "8186": 5181,
      "xaeQ": 5182,
      "xaeZ": 5183,
      "xaeTR": 5184,
      "xabn": 5185,
      "xbcZ": 5186,
      "xafAC": 5187,
      "xafSP": 5188,
      "89150": 5189,
      "891985": 5190,
      "84130": 5191,
      "993": 5192,
      "8600": 5193,
      "91100": 5194,
      "RAP": 5195,
      "881889": 5196,
      "881898": 5197,
      "881921": 5198,
      "881875": 5199,
      "881854": 5200,
      "821848": 5201,
      "448": 5202,
      "453": 5203,
      "172": 5204,
      "isa": 5205,
      "ĠMO": 5206,
      "ĠMov": 5207,
      "ĠAB": 5208,
      "881591": 5209,
      "404": 5210,
      "881614": 5211,
      "ĠLeg": 5212,
      "ĠLimited": 5213,
      "604": 5214,
      "asa": 5215,
      "357": 5216,
      "ente": 5217,
      "ural": 5218,
      "8177": 5219,
      "Ġset": 5220,
      "Ġden": 5221,
      "ĠVista": 5222,
      "ument": 5223,
      "osa": 5224,
      "agram": 5225,
      "thers": 5226,
      "Ġph": 5227,
      "779": 5228,
      "abeth": 5229,
      "uber": 5230,
      "ellow": 5231,
      "84700": 5232,
      "xaeGDP": 5233,
      "1833": 5234,
      "881942": 5235,
      "821867": 5236,
      "877000": 5237,
      "NGO": 5238,
      "xafNBA": 5239,
      "ulture": 5240,
      "ĠCommunic": 5241,
      "eKOF": 5242,
      "CLUB": 5243,
      "macOS": 5244,
      "ĠAwards": 5245,
      "ĠAgain": 5246,
      "ĠSports": 5247,
      "ENERATION": 5248,
      "sqrt": 5249,
      "rystal": 5250,
      "1818": 5251,
      "216": 5252,
      "72008": 5253,
      "AIR": 5254,
      "Br": 5255,
      "Eng": 5256,
      "Gr": 5257,
      "HL": 5258,
      "Jac": 5259,
      "Ki": 5260,
      "NB": 5261,
      "Sk": 5262,
      "UNE": 5263,
      "WW": 5264,
      "cn": 5265,
      "cer": 5266,
      "cis": 5267,
      "hard": 5268,
      "tocol": 5269,
      "xf": 5270,
      "Ġall": 5271,
      "Ġev": 5272,
      "xbcGP": 5273,
      "9717": 5274,
      "8980": 5275,
      "891981": 5276,
      "891940": 5277,
      "8422": 5278,
      "841500": 5279,
      "9500": 5280,
      "966": 5281,
      "9110": 5282,
      "811846": 5283,
      "881886": 5284,
      "821871": 5285,
      "434": 5286,
      "436": 5287,
      "437": 5288,
      "438": 5289,
      "4567": 5290,
      "ĠSu": 5291,
      "426": 5292,
      "head": 5293,
      "ĠME": 5294,
      "ĠAL": 5295,
      "ĠTown": 5296,
      "881568": 5297,
      "ĠPan": 5298,
      "ĠPower": 5299,
      "olo": 5300,
      "ete": 5301,
      "ĠRain": 5302,
      "3300": 5303,
      "8927": 5304,
      "8929": 5305,
      "ota": 5306,
      "imp": 5307,
      "SAKA": 5308,
      "arden": 5309,
      "xaeMk": 5310,
      "VEN": 5311,
      "ueen": 5312,
      "udy": 5313,
      "berry": 5314,
      "Ġgl": 5315,
      "DSL": 5316,
      "UNK": 5317,
      "1837": 5318,
      "881940": 5319,
      "xaeWeb": 5320,
      "achine": 5321,
      "811869": 5322,
      "881911": 5323,
      "NGC": 5324,
      "KEY": 5325,
      "881937": 5326,
      "ĠForm": 5327,
      "SHOW": 5328,
      "ountain": 5329,
      "tsZ": 5330,
      "iTaPa": 5331,
      "070": 5332,
      "1813": 5333,
      "61996": 5334,
      "8800": 5335,
      "Air": 5336,
      "ABA": 5337,
      "CER": 5338,
      "Cont": 5339,
      "DV": 5340,
      "GF": 5341,
      "IST": 5342,
      "Joseph": 5343,
      "MER": 5344,
      "Perfect": 5345,
      "fIC": 5346,
      "fish": 5347,
      "gin": 5348,
      "hange": 5349,
      "mit": 5350,
      "ns": 5351,
      "uh": 5352,
      "Ġ1982": 5353,
      "Ġ1969": 5354,
      "Ġ0000": 5355,
      "8197": 5356,
      "xabAC": 5357,
      "xabPC": 5358,
      "xbcS": 5359,
      "xafm": 5360,
      "891954": 5361,
      "xbbX": 5362,
      "xbbZ": 5363,
      "9525": 5364,
      "9349": 5365,
      "8722": 5366,
      "_\\\\": 5367,
      "881896": 5368,
      "881876": 5369,
      "881853": 5370,
      "452": 5371,
      "472": 5372,
      "heim": 5373,
      "ĠAngel": 5374,
      "ĠTri": 5375,
      "ĠBi": 5376,
      "ĠBig": 5377,
      "881586": 5378,
      "881587": 5379,
      "405": 5380,
      "ĠFeder": 5381,
      "ĠRE": 5382,
      "ĠRoyal": 5383,
      "ased": 5384,
      "8159": 5385,
      "629": 5386,
      "2400": 5387,
      "881880": 5388,
      "881897": 5389,
      "8176": 5390,
      "274": 5391,
      "ager": 5392,
      "aps": 5393,
      "Ġcal": 5394,
      "ĠState": 5395,
      "illy": 5396,
      "ITE": 5397,
      "ants": 5398,
      "cSh": 5399,
      "augh": 5400,
      "UND": 5401,
      "xaeDJ": 5402,
      "ized": 5403,
      "874000": 5404,
      "ocket": 5405,
      "eCoD": 5406,
      "881959": 5407,
      "881948": 5408,
      "811862": 5409,
      "82008": 5410,
      "annel": 5411,
      "xaeRotten": 5412,
      "xafNFL": 5413,
      "class": 5414,
      "ĠEnterprise": 5415,
      "Torrent": 5416,
      "1810": 5417,
      "291": 5418,
      "390": 5419,
      "322": 5420,
      "61980": 5421,
      "744": 5422,
      "AIM": 5423,
      "Ba": 5424,
      "CAA": 5425,
      "Down": 5426,
      "Direct": 5427,
      "FOX": 5428,
      "FVII": 5429,
      "Girls": 5430,
      "HM": 5431,
      "Ig": 5432,
      "JAS": 5433,
      "LV": 5434,
      "Michael": 5435,
      "RIM": 5436,
      "TF": 5437,
      "VGA": 5438,
      "WP": 5439,
      "aus": 5440,
      "aTV": 5441,
      "bor": 5442,
      "date": 5443,
      "eY": 5444,
      "light": 5445,
      "nn": 5446,
      "nTV": 5447,
      "pend": 5448,
      "set": 5449,
      "xi": 5450,
      "yes": 5451,
      "Ġ500": 5452,
      "8842": 5453,
      "xafQ": 5454,
      "xafZ": 5455,
      "xafII": 5456,
      "8426": 5457,
      "9213": 5458,
      "87100": 5459,
      "LIT": 5460,
      "81110": 5461,
      "LECTION": 5462,
      "881923": 5463,
      "881928": 5464,
      "inary": 5465,
      "456": 5466,
      "atz": 5467,
      "atory": 5468,
      "ĠSC": 5469,
      "ĠSup": 5470,
      "469": 5471,
      "ĠCA": 5472,
      "ĠMoon": 5473,
      "ĠApp": 5474,
      "eli": 5475,
      "ĠFram": 5476,
      "ĠDi": 5477,
      "omet": 5478,
      "cho": 5479,
      "8154": 5480,
      "815000": 5481,
      "ĠEr": 5482,
      "andora": 5483,
      "unch": 5484,
      "751": 5485,
      "8168": 5486,
      "otion": 5487,
      "ries": 5488,
      "266": 5489,
      "8254": 5490,
      "umi": 5491,
      "ago": 5492,
      "ATOK": 5493,
      "emb": 5494,
      "555": 5495,
      "SAP": 5496,
      "811241": 5497,
      "TOHO": 5498,
      "84250": 5499,
      "elli": 5500,
      "REAK": 5501,
      "ework": 5502,
      "OLL": 5503,
      "xaeBillboard": 5504,
      "1803": 5505,
      "ĠArm": 5506,
      "ETC": 5507,
      "881952": 5508,
      "881956": 5509,
      "cLOVE": 5510,
      "82007": 5511,
      "xafPK": 5512,
      "TCC": 5513,
      "ĠSeries": 5514,
      "881936": 5515,
      "OLDEN": 5516,
      "ragon": 5517,
      "ischen": 5518,
      "URAI": 5519,
      "emories": 5520,
      "Ġreturn": 5521,
      "0737": 5522,
      "1841": 5523,
      "1849": 5524,
      "241": 5525,
      "219": 5526,
      "245": 5527,
      "72011": 5528,
      "Berry": 5529,
      "Cent": 5530,
      "CAC": 5531,
      "Cha": 5532,
      "HY": 5533,
      "ISE": 5534,
      "JE": 5535,
      "Km": 5536,
      "PRO": 5537,
      "TL": 5538,
      "ait": 5539,
      "aCD": 5540,
      "eST": 5541,
      "fTV": 5542,
      "kh": 5543,
      "nUEFA": 5544,
      "wan": 5545,
      "Ġ1983": 5546,
      "8188": 5547,
      "82000": 5548,
      "8265": 5549,
      "xabO": 5550,
      "xabCM": 5551,
      "8890": 5552,
      "9716": 5553,
      "xafSF": 5554,
      "xafFM": 5555,
      "xafISO": 5556,
      "891973": 5557,
      "891983": 5558,
      "958": 5559,
      "991": 5560,
      "9335": 5561,
      "8510": 5562,
      "SEX": 5563,
      "TING": 5564,
      "81113": 5565,
      "ICK": 5566,
      "881885": 5567,
      "881888": 5568,
      "881856": 5569,
      "821840": 5570,
      "xda": 5571,
      "inst": 5572,
      "88300": 5573,
      "473": 5574,
      "1793": 5575,
      "813000": 5576,
      "rel": 5577,
      "reme": 5578,
      "881569": 5579,
      "ĠPr": 5580,
      "ams": 5581,
      "ĠLibrary": 5582,
      "2300": 5583,
      "ĠGame": 5584,
      "ĠGreat": 5585,
      "8855": 5586,
      "8859": 5587,
      "ĠHold": 5588,
      "anda": 5589,
      "ĠONE": 5590,
      "ĠOrd": 5591,
      "652": 5592,
      "8174": 5593,
      "rior": 5594,
      "Ġsch": 5595,
      "utt": 5596,
      "ĠVita": 5597,
      "Ġft": 5598,
      "ATSU": 5599,
      "aper": 5600,
      "idae": 5601,
      "3700": 5602,
      "ORS": 5603,
      "inder": 5604,
      "ellig": 5605,
      "econd": 5606,
      "ified": 5607,
      "ipedia": 5608,
      "artment": 5609,
      "ikipedia": 5610,
      "xaeCPU": 5611,
      "OUNT": 5612,
      "846000": 5613,
      "ustral": 5614,
      "1807": 5615,
      "1832": 5616,
      "881949": 5617,
      "821865": 5618,
      "isco": 5619,
      "ĠForce": 5620,
      "ĠExpl": 5621,
      "gency": 5622,
      "hemat": 5623,
      "istrict": 5624,
      "ĠBoard": 5625,
      "ittee": 5626,
      "'m": 5627,
      ")-": 5628,
      "--\\": 5629,
      "040": 5630,
      "198": 5631,
      "290": 5632,
      "580": 5633,
      "72006": 5634,
      "988": 5635,
      "=\"": 5636,
      "ABS": 5637,
      "DOHC": 5638,
      "Em": 5639,
      "Mark": 5640,
      "Pierre": 5641,
      "Res": 5642,
      "RING": 5643,
      "Sl": 5644,
      "System": 5645,
      "Tu": 5646,
      "West": 5647,
      "bJR": 5648,
      "cLI": 5649,
      "ei": 5650,
      "fI": 5651,
      "fen": 5652,
      "kappa": 5653,
      "oA": 5654,
      "put": 5655,
      "xaei": 5656,
      "9730": 5657,
      "xbbY": 5658,
      "9218": 5659,
      "946": 5660,
      "947": 5661,
      "81115": 5662,
      "811830": 5663,
      "LET": 5664,
      "881922": 5665,
      "881878": 5666,
      "881907": 5667,
      "447": 5668,
      "449": 5669,
      "4500": 5670,
      "8837": 5671,
      "ĠSub": 5672,
      "461": 5673,
      "174": 5674,
      "1797": 5675,
      "esis": 5676,
      "ĠCOM": 5677,
      "ĠMal": 5678,
      "ĠTop": 5679,
      "ĠBS": 5680,
      "rot": 5681,
      "891000": 5682,
      "8152": 5683,
      "ĠWith": 5684,
      "ander": 5685,
      "unit": 5686,
      "739": 5687,
      "757": 5688,
      "edi": 5689,
      "631": 5690,
      "654": 5691,
      "81700": 5692,
      "rik": 5693,
      "Ġsur": 5694,
      "ctive": 5695,
      "ĠKn": 5696,
      "BAF": 5697,
      "SASUKE": 5698,
      "oday": 5699,
      "akes": 5700,
      "667": 5701,
      "ists": 5702,
      "xaeMVP": 5703,
      "Ġworld": 5704,
      "ffect": 5705,
      "82010": 5706,
      "Ġhave": 5707,
      "873000": 5708,
      "cGO": 5709,
      "ector": 5710,
      "1835": 5711,
      "881958": 5712,
      "BEAT": 5713,
      "881910": 5714,
      "881918": 5715,
      "plus": 5716,
      "xabCF": 5717,
      "MIX": 5718,
      "881934": 5719,
      "uthor": 5720,
      "ĠControl": 5721,
      "zoome": 5722,
      "uilding": 5723,
      "WERTY": 5724,
      ")\"\\": 5725,
      "021": 5726,
      "189": 5727,
      "2200": 5728,
      "242": 5729,
      "343": 5730,
      "743": 5731,
      "British": 5732,
      "CV": 5733,
      "Cy": 5734,
      "Ds": 5735,
      "Die": 5736,
      "EZ": 5737,
      "HMS": 5738,
      "Mor": 5739,
      "NSC": 5740,
      "PY": 5741,
      "PON": 5742,
      "PAC": 5743,
      "Type": 5744,
      "Ware": 5745,
      "cSC": 5746,
      "cFM": 5747,
      "cript": 5748,
      "eCh": 5749,
      "fY": 5750,
      "ful": 5751,
      "fort": 5752,
      "han": 5753,
      "lock": 5754,
      "met": 5755,
      "nov": 5756,
      "uv": 5757,
      "wer": 5758,
      "wig": 5759,
      "zi": 5760,
      "zen": 5761,
      "Ġ150": 5762,
      "Ġ1942": 5763,
      "Ġ1959": 5764,
      "8184": 5765,
      "8185": 5766,
      "8012": 5767,
      "xaeSC": 5768,
      "xafNA": 5769,
      "891937": 5770,
      "848000": 5771,
      "9360": 5772,
      "871000": 5773,
      "LINC": 5774,
      "PHP": 5775,
      "TIA": 5776,
      "881830": 5777,
      "oro": 5778,
      "orum": 5779,
      "arn": 5780,
      "aro": 5781,
      "alia": 5782,
      "ĠSU": 5783,
      "ĠSol": 5784,
      "ĠSam": 5785,
      "ĠSpe": 5786,
      "1787": 5787,
      "ĠCir": 5788,
      "ĠCode": 5789,
      "308": 5790,
      "504": 5791,
      "ĠMobile": 5792,
      "ĠAPI": 5793,
      "ĠBritish": 5794,
      "881581": 5795,
      "ĠPART": 5796,
      "eler": 5797,
      "ĠRos": 5798,
      "ĠRacing": 5799,
      "609": 5800,
      "8156": 5801,
      "ĠHome": 5802,
      "ĠIm": 5803,
      "usion": 5804,
      "358": 5805,
      "8169": 5806,
      "ĠNov": 5807,
      "701": 5808,
      "ĠOUT": 5809,
      "IIB": 5810,
      "adi": 5811,
      "ATC": 5812,
      "ĠStr": 5813,
      "ĠStone": 5814,
      "INS": 5815,
      "TOPS": 5816,
      "ills": 5817,
      "ASC": 5818,
      "ITH": 5819,
      "ALS": 5820,
      "ateg": 5821,
      "ffic": 5822,
      "ahl": 5823,
      "onder": 5824,
      "OKAWA": 5825,
      "actor": 5826,
      "82006": 5827,
      "881912": 5828,
      "UCLA": 5829,
      "ĠThomas": 5830,
      "oftBank": 5831,
      "881935": 5832,
      "ĠAnim": 5833,
      "Ġthis": 5834,
      "eneration": 5835,
      "PEG": 5836,
      "reder": 5837,
      "ĠBrothers": 5838,
      "ĠRevolution": 5839,
      "www": 5840,
      "ython": 5841,
      "RAGON": 5842,
      "CACAF": 5843,
      "1827": 5844,
      "1844": 5845,
      "265": 5846,
      "3200": 5847,
      "6200": 5848,
      "DEC": 5849,
      "DOWN": 5850,
      "Free": 5851,
      "Hel": 5852,
      "HMV": 5853,
      "Key": 5854,
      "May": 5855,
      "MOR": 5856,
      "Mart": 5857,
      "MGM": 5858,
      "OSS": 5859,
      "PCM": 5860,
      "POS": 5861,
      "PDF": 5862,
      "Point": 5863,
      "South": 5864,
      "bat": 5865,
      "can": 5866,
      "eLO": 5867,
      "fTBS": 5868,
      "mos": 5869,
      "nCM": 5870,
      "oin": 5871,
      "po": 5872,
      "sy": 5873,
      "ti": 5874,
      "tto": 5875,
      "yu": 5876,
      "Ġer": 5877,
      "Ġel": 5878,
      "Ġap": 5879,
      "Ġ1958": 5880,
      "8013": 5881,
      "971000": 5882,
      "xafBS": 5883,
      "891943": 5884,
      "8427": 5885,
      "9332": 5886,
      "9610": 5887,
      "8717": 5888,
      "ARPA": 5889,
      "RAND": 5890,
      "811852": 5891,
      "811855": 5892,
      "LEX": 5893,
      "881000": 5894,
      "881800": 5895,
      "881879": 5896,
      "821883": 5897,
      "002": 5898,
      "Ġ((": 5899,
      "onn": 5900,
      "446": 5901,
      "171": 5902,
      "ĠMary": 5903,
      "ĠMiss": 5904,
      "ĠMax": 5905,
      "lear": 5906,
      "lete": 5907,
      "leep": 5908,
      "left": 5909,
      "ĠTor": 5910,
      "state": 5911,
      "881592": 5912,
      "ĠPet": 5913,
      "224": 5914,
      "ĠField": 5915,
      "ĠDel": 5916,
      "ĠDem": 5917,
      "ĠDays": 5918,
      "ĠDisp": 5919,
      "ĠGi": 5920,
      "omi": 5921,
      "cht": 5922,
      "ingo": 5923,
      "ĠEND": 5924,
      "ĠWeek": 5925,
      "334": 5926,
      "752": 5927,
      "edd": 5928,
      "edit": 5929,
      "Ġmin": 5930,
      "Ġmon": 5931,
      "8238": 5932,
      "2750": 5933,
      "ĠVideo": 5934,
      "thur": 5935,
      "ATH": 5936,
      "766": 5937,
      "7600": 5938,
      "ĠUSA": 5939,
      "Standard": 5940,
      "obar": 5941,
      "ĠĠĠĠĠĠĠĠĠĠĠĠĠĠ": 5942,
      "Ġget": 5943,
      "SUN": 5944,
      "idea": 5945,
      "1802": 5946,
      "rug": 5947,
      "ĠArmy": 5948,
      "881943": 5949,
      "811863": 5950,
      "club": 5951,
      "UML": 5952,
      "scape": 5953,
      "ĠReport": 5954,
      "ĠOffic": 5955,
      "amily": 5956,
      "EKD": 5957,
      "YAMATO": 5958,
      "ĠFramework": 5959,
      ")-\\": 5960,
      "018": 5961,
      "022": 5962,
      "1828": 5963,
      "246": 5964,
      "5500": 5965,
      "741": 5966,
      "72005": 5967,
      "72003": 5968,
      "CAS": 5969,
      "COX": 5970,
      "Da": 5971,
      "Fre": 5972,
      "GIII": 5973,
      "GHT": 5974,
      "JFA": 5975,
      "Music": 5976,
      "NU": 5977,
      "Part": 5978,
      "Sound": 5979,
      "Sky": 5980,
      "UDP": 5981,
      "WB": 5982,
      "WM": 5983,
      "Wil": 5984,
      "_\"": 5985,
      "cont": 5986,
      "fPC": 5987,
      "fSF": 5988,
      "fEL": 5989,
      "kin": 5990,
      "low": 5991,
      "mL": 5992,
      "mark": 5993,
      "nPC": 5994,
      "nNTT": 5995,
      "zer": 5996,
      "ĠAR": 5997,
      "ĠNE": 5998,
      "Ġart": 5999,
      "Ġ1963": 6000,
      "8192": 6001,
      "8173": 6002,
      "xaeRAW": 6003,
      "xabKO": 6004,
      "891978": 6005,
      "891976": 6006,
      "891957": 6007,
      "891952": 6008,
      "8640": 6009,
      "xacII": 6010,
      "NESS": 6011,
      "811859": 6012,
      "811857": 6013,
      "821000": 6014,
      "821853": 6015,
      "821859": 6016,
      "inja": 6017,
      "aniel": 6018,
      "445": 6019,
      "alism": 6020,
      "478": 6021,
      "479": 6022,
      "ĠSound": 6023,
      "179": 6024,
      "1796": 6025,
      "1794": 6026,
      "1750": 6027,
      "ito": 6028,
      "ĠTur": 6029,
      "881585": 6030,
      "ĠPack": 6031,
      "olph": 6032,
      "ĠDav": 6033,
      "ĠDev": 6034,
      "ĠDep": 6035,
      "ĠDark": 6036,
      "ami": 6037,
      "ĠLog": 6038,
      "ĠGla": 6039,
      "ĠGeorge": 6040,
      "omm": 6041,
      "asure": 6042,
      "ĠHow": 6043,
      "351": 6044,
      "639": 6045,
      "urm": 6046,
      "ives": 6047,
      "ĠVS": 6048,
      "aga": 6049,
      "imon": 6050,
      "Ġpres": 6051,
      "ulation": 6052,
      "ophy": 6053,
      "ACP": 6054,
      "iev": 6055,
      "666": 6056,
      "PSV": 6057,
      "ĠInternet": 6058,
      "USH": 6059,
      "ADOKAWA": 6060,
      "xaeCA": 6061,
      "cDB": 6062,
      "844000": 6063,
      "Ġgo": 6064,
      "iance": 6065,
      "END": 6066,
      "RCS": 6067,
      "ĠProtocol": 6068,
      "Ġein": 6069,
      "DDR": 6070,
      "under": 6071,
      "1801": 6072,
      "with": 6073,
      "book": 6074,
      "1836": 6075,
      "active": 6076,
      "BEL": 6077,
      "811868": 6078,
      "876000": 6079,
      "821864": 6080,
      "821866": 6081,
      "ĠZERO": 6082,
      "82004": 6083,
      "Arch": 6084,
      "ungs": 6085,
      "xbbWHIP": 6086,
      "881938": 6087,
      "ĠSTAR": 6088,
      "Ġ|_": 6089,
      "AXA": 6090,
      "ĠWhite": 6091,
      "ĠPeace": 6092,
      "ĠArchitect": 6093,
      "Baron": 6094,
      "SAMURAI": 6095,
      "Georg": 6096,
      "orizon": 6097,
      ");": 6098,
      ");_": 6099,
      "1811": 6100,
      "1826": 6101,
      "1829": 6102,
      "285": 6103,
      "263": 6104,
      "524": 6105,
      "648": 6106,
      "72009": 6107,
      "@\\": 6108,
      "AVE": 6109,
      "BK": 6110,
      "Big": 6111,
      "Cor": 6112,
      "EAR": 6113,
      "Facebook": 6114,
      "Hot": 6115,
      "IRC": 6116,
      "Jo": 6117,
      "JBL": 6118,
      "Mo": 6119,
      "MotoGP": 6120,
      "Na": 6121,
      "NING": 6122,
      "OY": 6123,
      "Per": 6124,
      "Pal": 6125,
      "Super": 6126,
      "TRA": 6127,
      "]_": 6128,
      "cb": 6129,
      "cTV": 6130,
      "eam": 6131,
      "fFC": 6132,
      "hu": 6133,
      "nig": 6134,
      "nAS": 6135,
      "nIn": 6136,
      "pis": 6137,
      "vas": 6138,
      "yb": 6139,
      "ĠPH": 6140,
      "Ġ32": 6141,
      "Ġ1979": 6142,
      "Ġ1967": 6143,
      "Ġ1966": 6144,
      "8198": 6145,
      "8300": 6146,
      "xaeSP": 6147,
      "xaeEF": 6148,
      "xaeLED": 6149,
      "xabWWE": 6150,
      "8843": 6151,
      "xafNATO": 6152,
      "892019": 6153,
      "891979": 6154,
      "891972": 6155,
      "xbbTBS": 6156,
      "994": 6157,
      "8612": 6158,
      "81130": 6159,
      "Ġbut": 6160,
      "881891": 6161,
      "881894": 6162,
      "881932": 6163,
      "881850": 6164,
      "821852": 6165,
      "Ġ(\"": 6166,
      "onic": 6167,
      "ences": 6168,
      "4400": 6169,
      "ĠSun": 6170,
      "ĠSaint": 6171,
      "468": 6172,
      "1792": 6173,
      "itter": 6174,
      "ĠMay": 6175,
      "ĠAtt": 6176,
      "881583": 6177,
      "881571": 6178,
      "881561": 6179,
      "ĠPress": 6180,
      "403": 6181,
      "ila": 6182,
      "ĠRun": 6183,
      "ĠRight": 6184,
      "ĠDist": 6185,
      "ĠData": 6186,
      "ĠLanguage": 6187,
      "ĠGall": 6188,
      "ĠGene": 6189,
      "omo": 6190,
      "Ġtrans": 6191,
      "8157": 6192,
      "ĠEarth": 6193,
      "ĠWild": 6194,
      "unity": 6195,
      "759": 6196,
      "8236": 6197,
      "82300": 6198,
      "656": 6199,
      "rian": 6200,
      "adian": 6201,
      "ivity": 6202,
      "ĠJack": 6203,
      "Ġper": 6204,
      "AAF": 6205,
      "opy": 6206,
      "ieve": 6207,
      "ORT": 6208,
      "APG": 6209,
      "HEY": 6210,
      "GPL": 6211,
      "SCO": 6212,
      "ITA": 6213,
      "eve": 6214,
      "oke": 6215,
      "ika": 6216,
      "SUTA": 6217,
      "OPE": 6218,
      "WELS": 6219,
      "irefox": 6220,
      "Ġ109": 6221,
      "1804": 6222,
      "1808": 6223,
      "Ġyour": 6224,
      "nTHE": 6225,
      "ĠExper": 6226,
      "radu": 6227,
      "ĠRecord": 6228,
      "ĠSecurity": 6229,
      "foobar": 6230,
      "emaTV": 6231,
      "emorial": 6232,
      "Operation": 6233,
      "SUTAYA": 6234,
      "%)": 6235,
      "017": 6236,
      "025": 6237,
      "181": 6238,
      "1825": 6239,
      "1843": 6240,
      "283": 6241,
      "295": 6242,
      "386": 6243,
      "570": 6244,
      "527": 6245,
      "61999": 6246,
      "61995": 6247,
      "746": 6248,
      "9810": 6249,
      "App": 6250,
      "BOR": 6251,
      "DY": 6252,
      "LG": 6253,
      "Les": 6254,
      "Luc": 6255,
      "Mi": 6256,
      "Mbps": 6257,
      "OFF": 6258,
      "Rb": 6259,
      "Sir": 6260,
      "SIM": 6261,
      "War": 6262,
      "Work": 6263,
      "aThe": 6264,
      "cQ": 6265,
      "cast": 6266,
      "ek": 6267,
      "eph": 6268,
      "fa": 6269,
      "fTwitter": 6270,
      "hof": 6271,
      "hip": 6272,
      "lu": 6273,
      "mod": 6274,
      "pi": 6275,
      "uer": 6276,
      "yper": 6277,
      "}^": 6278,
      "Ġq": 6279,
      "Ġ%\\": 6280,
      "Ġ28": 6281,
      "Ġ1960": 6282,
      "Ġ1968": 6283,
      "Ġ1981": 6284,
      "Ġ1972": 6285,
      "Ġ1971": 6286,
      "ĠNETWORK": 6287,
      "8242": 6288,
      "837": 6289,
      "xaeAPI": 6290,
      "xabPK": 6291,
      "97200": 6292,
      "972009": 6293,
      "972007": 6294,
      "xafCM": 6295,
      "xafOS": 6296,
      "891977": 6297,
      "9325": 6298,
      "xacCD": 6299,
      "ARTS": 6300,
      "811800": 6301,
      "811853": 6302,
      "881848": 6303,
      "881877": 6304,
      "881859": 6305,
      "82155": 6306,
      "821830": 6307,
      "ency": 6308,
      "ality": 6309,
      "ĠSky": 6310,
      "ĠSONG": 6311,
      "ĠSwitch": 6312,
      "1780": 6313,
      "1798": 6314,
      "1775": 6315,
      "1701": 6316,
      "estern": 6317,
      "ĠCorn": 6318,
      "icine": 6319,
      "itor": 6320,
      "ĠMON": 6321,
      "ĠMen": 6322,
      "ĠMil": 6323,
      "ĠMedia": 6324,
      "ĠAM": 6325,
      "star": 6326,
      "ĠBox": 6327,
      "881579": 6328,
      "ĠPi": 6329,
      "406": 6330,
      "7250": 6331,
      "ili": 6332,
      "ĠRank": 6333,
      "ĠDec": 6334,
      "ĠGrand": 6335,
      "ĠGENERATION": 6336,
      "Ġtime": 6337,
      "asc": 6338,
      "asi": 6339,
      "ĠEast": 6340,
      "ĠWord": 6341,
      "Ġoff": 6342,
      "89400": 6343,
      "8166": 6344,
      "Ġmg": 6345,
      "Ġmit": 6346,
      "ĠOver": 6347,
      "uri": 6348,
      "279": 6349,
      "aya": 6350,
      "267": 6351,
      "Ġser": 6352,
      "iva": 6353,
      "3400": 6354,
      "agn": 6355,
      "ulus": 6356,
      "ĠStor": 6357,
      "INY": 6358,
      "essage": 6359,
      "Ġvalue": 6360,
      "SCAR": 6361,
      "ransport": 6362,
      "haus": 6363,
      "cTSI": 6364,
      "rypt": 6365,
      "tein": 6366,
      "Ġform": 6367,
      "eSh": 6368,
      "HTB": 6369,
      "eCOMIC": 6370,
      "881944": 6371,
      "print": 6372,
      "eFNS": 6373,
      "881913": 6374,
      "881917": 6375,
      "TEAM": 6376,
      "xaeHP": 6377,
      "ĠAdvanced": 6378,
      "Class": 6379,
      "ministr": 6380,
      "ĠOrgan": 6381,
      "Ġ\\\\,": 6382,
      "821835": 6383,
      "WCW": 6384,
      "ĠEnglish": 6385,
      "Frank": 6386,
      "arbon": 6387,
      "Ġclass": 6388,
      "overnment": 6389,
      "tvk": 6390,
      "QuickTime": 6391,
      "1817": 6392,
      "1819": 6393,
      "1824": 6394,
      "387": 6395,
      "487": 6396,
      "642": 6397,
      "633": 6398,
      "61960": 6399,
      "765": 6400,
      "=>": 6401,
      "BLE": 6402,
      "Ber": 6403,
      "BIG": 6404,
      "Ext": 6405,
      "Ha": 6406,
      "Henry": 6407,
      "Im": 6408,
      "MLS": 6409,
      "Ol": 6410,
      "Pat": 6411,
      "Sw": 6412,
      "TCP": 6413,
      "Val": 6414,
      "ault": 6415,
      "bCD": 6416,
      "cON": 6417,
      "cFA": 6418,
      "eff": 6419,
      "fO": 6420,
      "nNBA": 6421,
      "ront": 6422,
      "ĠLE": 6423,
      "Ġent": 6424,
      "Ġ1975": 6425,
      "Ġ1974": 6426,
      "Ġ1977": 6427,
      "Ġ1964": 6428,
      "8020": 6429,
      "xaem": 6430,
      "xaeSt": 6431,
      "xbct": 6432,
      "972006": 6433,
      "xafIC": 6434,
      "xafAN": 6435,
      "891969": 6436,
      "891941": 6437,
      "891933": 6438,
      "842500": 6439,
      "9222": 6440,
      "xada": 6441,
      "945": 6442,
      "949": 6443,
      "8714": 6444,
      "8718": 6445,
      "8721": 6446,
      "ICT": 6447,
      "881883": 6448,
      "881893": 6449,
      "881925": 6450,
      "881905": 6451,
      "881855": 6452,
      "ination": 6453,
      "index": 6454,
      "8833": 6455,
      "ĠSocial": 6456,
      "467": 6457,
      "1788": 6458,
      "ichel": 6459,
      "ĠMus": 6460,
      "ĠTro": 6461,
      "rec": 6462,
      "ĠPass": 6463,
      "elb": 6464,
      "408": 6465,
      "ĠFOX": 6466,
      "ĠFOUR": 6467,
      "acy": 6468,
      "881602": 6469,
      "ĠRet": 6470,
      "ĠRom": 6471,
      "ĠRobert": 6472,
      "603": 6473,
      "ĠGen": 6474,
      "omp": 6475,
      "chestra": 6476,
      "753": 6477,
      "raf": 6478,
      "iga": 6479,
      "NAS": 6480,
      "8178": 6481,
      "Ġperson": 6482,
      "ACC": 6483,
      "uby": 6484,
      "esta": 6485,
      "ĠInf": 6486,
      "cSP": 6487,
      "ADS": 6488,
      "SPE": 6489,
      "Inst": 6490,
      "BOYS": 6491,
      "qua": 6492,
      "Ġhis": 6493,
      "anger": 6494,
      "ension": 6495,
      "1834": 6496,
      "shire": 6497,
      "cient": 6498,
      "KIO": 6499,
      "RISE": 6500,
      "fMT": 6501,
      "xaeVTR": 6502,
      "PKK": 6503,
      "ĠJapanese": 6504,
      "ABCD": 6505,
      "ĠConference": 6506,
      "811839": 6507,
      "881835": 6508,
      "ĠGlobal": 6509,
      "ĠParis": 6510,
      "utsche": 6511,
      "BlackBerry": 6512,
      "ĠSingle": 6513,
      "Alexa": 6514,
      "ĠExplor": 6515,
      "293": 6516,
      "5100": 6517,
      "644": 6518,
      "62018": 6519,
      "68000": 6520,
      ";\\": 6521,
      "Emacs": 6522,
      "Fort": 6523,
      "Gen": 6524,
      "ISA": 6525,
      "Jul": 6526,
      "LOW": 6527,
      "LPGA": 6528,
      "MON": 6529,
      "Med": 6530,
      "NF": 6531,
      "NSA": 6532,
      "North": 6533,
      "PDP": 6534,
      "Power": 6535,
      "RL": 6536,
      "VM": 6537,
      "VAN": 6538,
      "Vict": 6539,
      "aE": 6540,
      "aU": 6541,
      "bird": 6542,
      "cAR": 6543,
      "eDE": 6544,
      "eAKB": 6545,
      "fly": 6546,
      "iem": 6547,
      "sub": 6548,
      "side": 6549,
      "val": 6550,
      "Ġ300": 6551,
      "Ġ1946": 6552,
      "ĠTIME": 6553,
      "8189": 6554,
      "8243": 6555,
      "8233": 6556,
      "xaeIT": 6557,
      "xbcA": 6558,
      "8880": 6559,
      "xafUS": 6560,
      "891967": 6561,
      "891964": 6562,
      "891939": 6563,
      "891938": 6564,
      "xbbGT": 6565,
      "xbaJr": 6566,
      "9280": 6567,
      "9219": 6568,
      "922014": 6569,
      "xadn": 6570,
      "xacV": 6571,
      "878000": 6572,
      "81125": 6573,
      "811858": 6574,
      "881902": 6575,
      "881804": 6576,
      "821820": 6577,
      "821854": 6578,
      "821855": 6579,
      "004": 6580,
      "alo": 6581,
      "alis": 6582,
      "8834": 6583,
      "1770": 6584,
      "ĠCy": 6585,
      "isen": 6586,
      "ĠAst": 6587,
      "ĠTower": 6588,
      "ĠTrain": 6589,
      "stra": 6590,
      "ĠBeat": 6591,
      "ĠBAND": 6592,
      "ĠBridge": 6593,
      "881597": 6594,
      "ĠPoint": 6595,
      "ily": 6596,
      "ether": 6597,
      "oug": 6598,
      "ĠDu": 6599,
      "FCC": 6600,
      "ĠLast": 6601,
      "ĠLike": 6602,
      "607": 6603,
      "ĠGL": 6604,
      "8870": 6605,
      "depend": 6606,
      "339": 6607,
      "7120": 6608,
      "8237": 6609,
      "Ġ120": 6610,
      "NACK": 6611,
      "adt": 6612,
      "iving": 6613,
      "ĠJr": 6614,
      "ĠJames": 6615,
      "Ġcar": 6616,
      "ACL": 6617,
      "ogen": 6618,
      "avy": 6619,
      "avex": 6620,
      "ovo": 6621,
      "inds": 6622,
      "Ġvan": 6623,
      "RED": 6624,
      "REX": 6625,
      "Ġles": 6626,
      "owski": 6627,
      "Ġna": 6628,
      "ALK": 6629,
      "xaeCS": 6630,
      "OUD": 6631,
      "order": 6632,
      "ackDown": 6633,
      "egg": 6634,
      "ection": 6635,
      "WEST": 6636,
      "vert": 6637,
      "1805": 6638,
      "1838": 6639,
      "HTTP": 6640,
      "LDL": 6641,
      "cNo": 6642,
      "Ġreg": 6643,
      "881916": 6644,
      "UCN": 6645,
      "cEX": 6646,
      "ĠThis": 6647,
      "ĠSpace": 6648,
      "riter": 6649,
      "ĠForth": 6650,
      "nWii": 6651,
      "eJNN": 6652,
      "ĠHealth": 6653,
      "ĠAssist": 6654,
      "Macintosh": 6655,
      "ĠCentre": 6656,
      "ĠBaron": 6657,
      "ervice": 6658,
      "ĠCollection": 6659,
      "AZZ": 6660,
      "ozilla": 6661,
      "ached": 6662,
      "GNU": 6663,
      "ĠChampionships": 6664,
      "023": 6665,
      "149": 6666,
      "282": 6667,
      "247": 6668,
      "273": 6669,
      "381": 6670,
      "345": 6671,
      "6800": 6672,
      "61958": 6673,
      "72015": 6674,
      "764": 6675,
      "AIN": 6676,
      "BY": 6677,
      "CNR": 6678,
      "Doc": 6679,
      "GY": 6680,
      "Hist": 6681,
      "IW": 6682,
      "Is": 6683,
      "JECT": 6684,
      "LUS": 6685,
      "MTV": 6686,
      "MET": 6687,
      "QUE": 6688,
      "Rec": 6689,
      "Sub": 6690,
      "UG": 6691,
      "ao": 6692,
      "aid": 6693,
      "cia": 6694,
      "cPC": 6695,
      "eII": 6696,
      "eSF": 6697,
      "fi": 6698,
      "har": 6699,
      "house": 6700,
      "lav": 6701,
      "nPS": 6702,
      "oard": 6703,
      "par": 6704,
      "pet": 6705,
      "part": 6706,
      "uica": 6707,
      "Ġ42": 6708,
      "Ġ75": 6709,
      "Ġ65": 6710,
      "Ġ1940": 6711,
      "Ġ1965": 6712,
      "8183": 6713,
      "8187": 6714,
      "8191": 6715,
      "8171": 6716,
      "8288": 6717,
      "xabTV": 6718,
      "8844": 6719,
      "9719": 6720,
      "89800": 6721,
      "891971": 6722,
      "891961": 6723,
      "891953": 6724,
      "xaaCM": 6725,
      "8421": 6726,
      "8436": 6727,
      "84140": 6728,
      "xbaA": 6729,
      "922006": 6730,
      "9520": 6731,
      "944": 6732,
      "811200": 6733,
      "811854": 6734,
      "881908": 6735,
      "erman": 6736,
      "orem": 6737,
      "atre": 6738,
      "474": 6739,
      "ĠSHO": 6740,
      "ĠSurv": 6741,
      "173": 6742,
      "1777": 6743,
      "ising": 6744,
      "itle": 6745,
      "503": 6746,
      "ĠTH": 6747,
      "ĠBra": 6748,
      "ĠBot": 6749,
      "ĠBur": 6750,
      "ĠBrown": 6751,
      "881598": 6752,
      "881563": 6753,
      "881558": 6754,
      "elo": 6755,
      "402": 6756,
      "409": 6757,
      "ĠFar": 6758,
      "oli": 6759,
      "olis": 6760,
      "ĠDeath": 6761,
      "amental": 6762,
      "ĠGIRL": 6763,
      "asse": 6764,
      "8931": 6765,
      "ĠEm": 6766,
      "ando": 6767,
      "8167": 6768,
      "8179": 6769,
      "rier": 6770,
      "276": 6771,
      "277": 6772,
      "agg": 6773,
      "ĠJoseph": 6774,
      "Ġcc": 6775,
      "uls": 6776,
      "ĠUN": 6777,
      "ĠUnder": 6778,
      "ACH": 6779,
      "INK": 6780,
      "ISIL": 6781,
      "avel": 6782,
      "6600": 6783,
      "811794": 6784,
      "REEN": 6785,
      "ASY": 6786,
      "ante": 6787,
      "ADI": 6788,
      "SPA": 6789,
      "82011": 6790,
      "ains": 6791,
      "ENDO": 6792,
      "---": 6793,
      "847000": 6794,
      "izabeth": 6795,
      "eyond": 6796,
      "ĠUnion": 6797,
      "ppm": 6798,
      "Unix": 6799,
      "EXILE": 6800,
      "OHV": 6801,
      "nJava": 6802,
      "Project": 6803,
      "THER": 6804,
      "ĠCommittee": 6805,
      "iya": 6806,
      "1234567": 6807,
      "ĠServices": 6808,
      "QUARE": 6809,
      "remium": 6810,
      "ĠDesign": 6811,
      "GENJI": 6812,
      "iddle": 6813,
      "ructure": 6814,
      "1822": 6815,
      "5200": 6816,
      "526": 6817,
      "665": 6818,
      "6809": 6819,
      "772": 6820,
      "72012": 6821,
      "980": 6822,
      "995": 6823,
      "BP": 6824,
      "BAR": 6825,
      "CU": 6826,
      "CAD": 6827,
      "EI": 6828,
      "Forth": 6829,
      "Gal": 6830,
      "High": 6831,
      "OF": 6832,
      "Ober": 6833,
      "Port": 6834,
      "Sy": 6835,
      "SBS": 6836,
      "Saint": 6837,
      "Tor": 6838,
      "Ult": 6839,
      "[]": 6840,
      "bon": 6841,
      "bach": 6842,
      "cSE": 6843,
      "cup": 6844,
      "code": 6845,
      "dS": 6846,
      "dCD": 6847,
      "duc": 6848,
      "fZ": 6849,
      "fThe": 6850,
      "fIP": 6851,
      "fFM": 6852,
      "his": 6853,
      "key": 6854,
      "lan": 6855,
      "lad": 6856,
      "lim": 6857,
      "mn": 6858,
      "mond": 6859,
      "nIP": 6860,
      "sky": 6861,
      "saka": 6862,
      "uan": 6863,
      "uki": 6864,
      "}\\": 6865,
      "Ġ31": 6866,
      "Ġ29": 6867,
      "Ġ56": 6868,
      "Ġ1973": 6869,
      "Ġ1943": 6870,
      "Ġ1941": 6871,
      "Ġlet": 6872,
      "8182": 6873,
      "8249": 6874,
      "8274": 6875,
      "xabUEFA": 6876,
      "xbcD": 6877,
      "xbcP": 6878,
      "972011": 6879,
      "972008": 6880,
      "972000": 6881,
      "xafAT": 6882,
      "891966": 6883,
      "891962": 6884,
      "xbbFM": 6885,
      "9290": 6886,
      "922008": 6887,
      "922007": 6888,
      "9270": 6889,
      "9512": 6890,
      "9530": 6891,
      "998": 6892,
      "9314": 6893,
      "8620": 6894,
      "NER": 6895,
      "RAF": 6896,
      "AGUE": 6897,
      "811821": 6898,
      "81116": 6899,
      "811820": 6900,
      "811806": 6901,
      "881887": 6902,
      "881906": 6903,
      "enk": 6904,
      "enri": 6905,
      "aran": 6906,
      "atio": 6907,
      "1650": 6908,
      "ĠChe": 6909,
      "506": 6910,
      "ĠMel": 6911,
      "ĠTree": 6912,
      "ĠTwo": 6913,
      "ĠBen": 6914,
      "881547": 6915,
      "ĠPost": 6916,
      "ĠFe": 6917,
      "ĠFree": 6918,
      "881601": 6919,
      "etic": 6920,
      "eting": 6921,
      "ĠDom": 6922,
      "ĠDavid": 6923,
      "ĠLondon": 6924,
      "891918": 6925,
      "ĠGar": 6926,
      "ĠHuman": 6927,
      "ĠEDI": 6928,
      "338": 6929,
      "edom": 6930,
      "ĠOp": 6931,
      "utch": 6932,
      "8259": 6933,
      "ĠJes": 6934,
      "emo": 6935,
      "ĠKids": 6936,
      "Ġpublic": 6937,
      "ACS": 6938,
      "TOR": 6939,
      "aval": 6940,
      "Ġincome": 6941,
      "Ġ365": 6942,
      "Ġversion": 6943,
      "ecret": 6944,
      "NTSC": 6945,
      "ĠCharles": 6946,
      "seud": 6947,
      "Children": 6948,
      "xaeFW": 6949,
      "Ġequ": 6950,
      "ruction": 6951,
      "Albert": 6952,
      "Alpha": 6953,
      "LOOD": 6954,
      "Yout": 6955,
      "xafDNA": 6956,
      "eather": 6957,
      "ools": 6958,
      "UMMER": 6959,
      "ĠMaria": 6960,
      "orning": 6961,
      "efore": 6962,
      "liche": 6963,
      "type": 6964,
      "ĠPlan": 6965,
      "INTENDO": 6966,
      "VVVF": 6967,
      "ĠValley": 6968,
      "ĠMagazine": 6969,
      "Global": 6970,
      "Steph": 6971,
      "ribute": 6972,
      "ydro": 6973,
      "ĠGeorg": 6974,
      "ĠBoys": 6975,
      "ARUTO": 6976,
      "LITZ": 6977,
      "ĠOrder": 6978,
      "elligence": 6979,
      "294": 6980,
      "481": 6981,
      "560": 6982,
      "61997": 6983,
      "61993": 6984,
      "61950": 6985,
      "61975": 6986,
      "72014": 6987,
      "::": 6988,
      "Ben": 6989,
      "Bro": 6990,
      "Back": 6991,
      "East": 6992,
      "FRP": 6993,
      "GOLD": 6994,
      "Hans": 6995,
      "IUCN": 6996,
      "JNN": 6997,
      "LN": 6998,
      "Lo": 6999,
      "MZ": 7000,
      "Mat": 7001,
      "Mid": 7002,
      "Mary": 7003,
      "MiG": 7004,
      "PF": 7005,
      "Pr": 7006,
      "Prin": 7007,
      "RG": 7008,
      "Run": 7009,
      "Red": 7010,
      "RTKO": 7011,
      "RKB": 7012,
      "SOD": 7013,
      "Ts": 7014,
      "WOWOW": 7015,
      "YP": 7016,
      "ZZ": 7017,
      "_&": 7018,
      "band": 7019,
      "bahn": 7020,
      "cj": 7021,
      "cr": 7022,
      "cen": 7023,
      "cell": 7024,
      "dB": 7025,
      "dL": 7026,
      "ias": 7027,
      "mol": 7028,
      "nSt": 7029,
      "uya": 7030,
      "Ġ1976": 7031,
      "Ġend": 7032,
      "Ġ1939": 7033,
      "Ġ1924": 7034,
      "Ġout": 7035,
      "xamp": 7036,
      "8244": 7037,
      "8275": 7038,
      "8015": 7039,
      "xbcC": 7040,
      "972013": 7041,
      "972017": 7042,
      "xafSC": 7043,
      "891958": 7044,
      "891934": 7045,
      "xaaN": 7046,
      "8400": 7047,
      "8432": 7048,
      "8455": 7049,
      "xbaT": 7050,
      "9323": 7051,
      "943": 7052,
      "LING": 7053,
      "81112": 7054,
      "811810": 7055,
      "811849": 7056,
      "881895": 7057,
      "881818": 7058,
      "881820": 7059,
      "881903": 7060,
      "881840": 7061,
      "881909": 7062,
      "err": 7063,
      "459": 7064,
      "atum": 7065,
      "ĠSide": 7066,
      "1781": 7067,
      "1720": 7068,
      "1710": 7069,
      "ĠCant": 7070,
      "306": 7071,
      "itro": 7072,
      "505": 7073,
      "ĠMAN": 7074,
      "ĠAer": 7075,
      "ĠAle": 7076,
      "881588": 7077,
      "ĠPRE": 7078,
      "ĠPacific": 7079,
      "881683": 7080,
      "etz": 7081,
      "ĠRob": 7082,
      "ĠDynam": 7083,
      "ĠDistrict": 7084,
      "amin": 7085,
      "ĠLov": 7086,
      "891920": 7087,
      "605": 7088,
      "ĠGro": 7089,
      "char": 7090,
      "ĠHel": 7091,
      "ĠEarl": 7092,
      "353": 7093,
      "andy": 7094,
      "uns": 7095,
      "FAL": 7096,
      "ĠOld": 7097,
      "8234": 7098,
      "89500": 7099,
      "irth": 7100,
      "utive": 7101,
      "ages": 7102,
      "cthe": 7103,
      "82400": 7104,
      "SAI": 7105,
      "7700": 7106,
      "ORO": 7107,
      "8268": 7108,
      "811700": 7109,
      "xaeMS": 7110,
      "xaeMac": 7111,
      "udd": 7112,
      "ranch": 7113,
      "ortal": 7114,
      "ĠChap": 7115,
      "ewis": 7116,
      "OUSE": 7117,
      "astic": 7118,
      "Instit": 7119,
      "82012": 7120,
      "xaeSD": 7121,
      "OKE": 7122,
      "MPEG": 7123,
      "cNO": 7124,
      "Ġstate": 7125,
      "Ġreaction": 7126,
      "eFNN": 7127,
      "Ġals": 7128,
      "ĠSTAGE": 7129,
      "ĠComputer": 7130,
      "ĠExt": 7131,
      "IDEO": 7132,
      "TDK": 7133,
      "881836": 7134,
      "bury": 7135,
      "FUL": 7136,
      "ĠInterface": 7137,
      "OpenOffice": 7138,
      "atural": 7139,
      "ĠCLUB": 7140,
      "ilitary": 7141,
      "ĠPaul": 7142,
      "xample": 7143,
      ".'": 7144,
      "398": 7145,
      "483": 7146,
      "646": 7147,
      "7160": 7148,
      "9820": 7149,
      "ASS": 7150,
      "BSE": 7151,
      "DAP": 7152,
      "Exc": 7153,
      "FtsZ": 7154,
      "Honda": 7155,
      "Ind": 7156,
      "Jack": 7157,
      "Kar": 7158,
      "KDE": 7159,
      "Land": 7160,
      "LGBT": 7161,
      "MU": 7162,
      "Ma": 7163,
      "MOS": 7164,
      "Master": 7165,
      "Pol": 7166,
      "PAN": 7167,
      "PASMO": 7168,
      "Pandora": 7169,
      "Radio": 7170,
      "XML": 7171,
      "YLE": 7172,
      "cin": 7173,
      "cNA": 7174,
      "fED": 7175,
      "lov": 7176,
      "mile": 7177,
      "oj": 7178,
      "ski": 7179,
      "xy": 7180,
      "Ġ34": 7181,
      "Ġ36": 7182,
      "Ġ51": 7183,
      "Ġ400": 7184,
      "Ġant": 7185,
      "Ġep": 7186,
      "Ġ1933": 7187,
      "8294": 7188,
      "8014": 7189,
      "xaeBS": 7190,
      "xaeThe": 7191,
      "xaeED": 7192,
      "xabAA": 7193,
      "xbcF": 7194,
      "xbcSS": 7195,
      "972012": 7196,
      "891965": 7197,
      "xaaDJ": 7198,
      "8428": 7199,
      "922015": 7200,
      "9328": 7201,
      "xacIII": 7202,
      "8719": 7203,
      "8730": 7204,
      "879000": 7205,
      "NEO": 7206,
      "811828": 7207,
      "811851": 7208,
      "811832": 7209,
      "881805": 7210,
      "821846": 7211,
      "003": 7212,
      "enburg": 7213,
      "ario": 7214,
      "8838": 7215,
      "464": 7216,
      "1660": 7217,
      "1772": 7218,
      "ĠCat": 7219,
      "ĠCut": 7220,
      "icy": 7221,
      "icode": 7222,
      "isi": 7223,
      "itive": 7224,
      "itude": 7225,
      "ĠMore": 7226,
      "ĠAge": 7227,
      "ĠAugust": 7228,
      "ĠTw": 7229,
      "ĠTre": 7230,
      "ĠTouch": 7231,
      "ĠBack": 7232,
      "881593": 7233,
      "881560": 7234,
      "roll": 7235,
      "aci": 7236,
      "iles": 7237,
      "etta": 7238,
      "ĠRad": 7239,
      "ouv": 7240,
      "ĠDog": 7241,
      "ĠDEST": 7242,
      "ĠGATE": 7243,
      "omer": 7244,
      "Ġtr": 7245,
      "Ġtouch": 7246,
      "ingle": 7247,
      "ĠHill": 7248,
      "rap": 7249,
      "igi": 7250,
      "708": 7251,
      "ĠOl": 7252,
      "ĠObject": 7253,
      "268": 7254,
      "Ġsy": 7255,
      "utter": 7256,
      "8252": 7257,
      "8256": 7258,
      "osc": 7259,
      "ĠJones": 7260,
      "84180": 7261,
      "Ġcell": 7262,
      "ogue": 7263,
      "ISH": 7264,
      "ovell": 7265,
      "kgm": 7266,
      "OSC": 7267,
      "ardo": 7268,
      "uben": 7269,
      "html": 7270,
      "eller": 7271,
      "811776": 7272,
      "811600": 7273,
      "USRA": 7274,
      "udwig": 7275,
      "ipe": 7276,
      "OUL": 7277,
      "cDon": 7278,
      "IME": 7279,
      "ĠProfessional": 7280,
      "EMS": 7281,
      "oreign": 7282,
      "IGA": 7283,
      "xaeSNS": 7284,
      "IRI": 7285,
      "1809": 7286,
      "NSX": 7287,
      "MSX": 7288,
      "Ġrel": 7289,
      "eFFVII": 7290,
      "881914": 7291,
      "xafGoogle": 7292,
      "NGE": 7293,
      "Arc": 7294,
      "ynth": 7295,
      "HDTV": 7296,
      "ollow": 7297,
      "minal": 7298,
      "aterial": 7299,
      "overGirls": 7300,
      "eIBAF": 7301,
      "ĠWarrior": 7302,
      "NKVD": 7303,
      "ĠStudies": 7304,
      "ĠBOYS": 7305,
      "}{\\\\": 7306,
      "Ġcapita": 7307,
      "ĠArea": 7308,
      "plication": 7309,
      "ĠFederation": 7310,
      "raduate": 7311,
      "!_": 7312,
      "\"_": 7313,
      "++": 7314,
      "./": 7315,
      "284": 7316,
      "2800": 7317,
      "364": 7318,
      "3150": 7319,
      "486": 7320,
      "590": 7321,
      "695": 7322,
      "643": 7323,
      "61976": 7324,
      "72013": 7325,
      "72016": 7326,
      "AJ": 7327,
      "Ac": 7328,
      "Bit": 7329,
      "Bern": 7330,
      "Cat": 7331,
      "Camp": 7332,
      "Du": 7333,
      "Des": 7334,
      "GIRLS": 7335,
      "HK": 7336,
      "How": 7337,
      "HBC": 7338,
      "King": 7339,
      "Low": 7340,
      "MX": 7341,
      "Mus": 7342,
      "MAC": 7343,
      "Media": 7344,
      "Ni": 7345,
      "NIC": 7346,
      "NOR": 7347,
      "NOP": 7348,
      "Python": 7349,
      "Rep": 7350,
      "SOS": 7351,
      "SHO": 7352,
      "TK": 7353,
      "UA": 7354,
      "WV": 7355,
      "YJ": 7356,
      "YOSHIKI": 7357,
      "^_": 7358,
      "_-": 7359,
      "bNHK": 7360,
      "bTV": 7361,
      "back": 7362,
      "cNEW": 7363,
      "eNEWS": 7364,
      "fWindows": 7365,
      "ms": 7366,
      "mir": 7367,
      "nQ": 7368,
      "num": 7369,
      "rite": 7370,
      "time": 7371,
      "uj": 7372,
      "var": 7373,
      "ĠPAR": 7374,
      "Ġri": 7375,
      "Ġ37": 7376,
      "Ġop": 7377,
      "Ġist": 7378,
      "Ġ52": 7379,
      "Ġ1955": 7380,
      "Ġ1929": 7381,
      "Ġ1926": 7382,
      "8293": 7383,
      "8241": 7384,
      "8248": 7385,
      "8276": 7386,
      "xabd": 7387,
      "xabWindows": 7388,
      "xabYouTube": 7389,
      "xafFA": 7390,
      "xafPS": 7391,
      "xafIBM": 7392,
      "xafLED": 7393,
      "891963": 7394,
      "891942": 7395,
      "xbaB": 7396,
      "xbaQB": 7397,
      "9221": 7398,
      "xadFC": 7399,
      "93200": 7400,
      "9341": 7401,
      "9318": 7402,
      "9337": 7403,
      "9600": 7404,
      "8615": 7405,
      "8723": 7406,
      "9130": 7407,
      "RADIO": 7408,
      "OND": 7409,
      "81119": 7410,
      "811815": 7411,
      "811842": 7412,
      "811844": 7413,
      "881892": 7414,
      "oni": 7415,
      "ania": 7416,
      "orrow": 7417,
      "1799": 7418,
      "icon": 7419,
      "ĠMir": 7420,
      "ĠMichael": 7421,
      "ĠTR": 7422,
      "ĠBL": 7423,
      "ĠBy": 7424,
      "ĠBLUE": 7425,
      "881564": 7426,
      "881576": 7427,
      "rob": 7428,
      "rog": 7429,
      "roy": 7430,
      "881622": 7431,
      "ĠRING": 7432,
      "ĠDREAM": 7433,
      "aser": 7434,
      "881716": 7435,
      "88700": 7436,
      "inger": 7437,
      "8935": 7438,
      "ĠEll": 7439,
      "ĠWater": 7440,
      "355": 7441,
      "337": 7442,
      "ential": 7443,
      "658": 7444,
      "269": 7445,
      "81103": 7446,
      "81105": 7447,
      "ires": 7448,
      "uty": 7449,
      "ĠVan": 7450,
      "ĠVill": 7451,
      "osis": 7452,
      "imal": 7453,
      "apon": 7454,
      "769": 7455,
      "iae": 7456,
      "ido": 7457,
      "nderg": 7458,
      "ĠUP": 7459,
      "ĠUr": 7460,
      "ĠUs": 7461,
      "TOS": 7462,
      "Stud": 7463,
      "668": 7464,
      "iste": 7465,
      "istry": 7466,
      "AMS": 7467,
      "811791": 7468,
      "Ġvar": 7469,
      "Ġlog": 7470,
      "ify": 7471,
      "iforn": 7472,
      "cMy": 7473,
      "Ġwork": 7474,
      "Ġnode": 7475,
      "Ġname": 7476,
      "Ġnumber": 7477,
      "ipper": 7478,
      "82014": 7479,
      "BOOK": 7480,
      "WAY": 7481,
      "BMC": 7482,
      "aude": 7483,
      "xaePK": 7484,
      "azar": 7485,
      "ired": 7486,
      "AVA": 7487,
      "93246": 7488,
      "xaeJRA": 7489,
      "xaeGT": 7490,
      "ugar": 7491,
      "LSI": 7492,
      "KISS": 7493,
      "ooo": 7494,
      "ronic": 7495,
      "oxPro": 7496,
      "ĠHead": 7497,
      "nVisual": 7498,
      "ĠEnvironment": 7499,
      "!!!": 7500,
      "881837": 7501,
      "ĠSPIR": 7502,
      "ĠSPECIAL": 7503,
      "MGTE": 7504,
      "ĠPeople": 7505,
      "fessor": 7506,
      "ĠSmith": 7507,
      "OECD": 7508,
      "ĠBasic": 7509,
      "Ġarray": 7510,
      "unnel": 7511,
      "irtual": 7512,
      "Ġagain": 7513,
      "ĠExchange": 7514,
      "ĠExplorer": 7515,
      "$\\": 7516,
      "019": 7517,
      "067": 7518,
      "288": 7519,
      "292": 7520,
      "243": 7521,
      "382": 7522,
      "397": 7523,
      "341": 7524,
      "346": 7525,
      "332": 7526,
      "32000": 7527,
      "375": 7528,
      "583": 7529,
      "528": 7530,
      "61985": 7531,
      "61967": 7532,
      "61965": 7533,
      "Ak": 7534,
      "Bur": 7535,
      "BER": 7536,
      "Battle": 7537,
      "DU": 7538,
      "Der": 7539,
      "Dance": 7540,
      "EAM": 7541,
      "ESPN": 7542,
      "FET": 7543,
      "GUI": 7544,
      "Hol": 7545,
      "IZ": 7546,
      "JSL": 7547,
      "JAXA": 7548,
      "KADOKAWA": 7549,
      "LH": 7550,
      "Life": 7551,
      "NFC": 7552,
      "PX": 7553,
      "RFC": 7554,
      "SON": 7555,
      "TER": 7556,
      "Top": 7557,
      "aJR": 7558,
      "bow": 7559,
      "bell": 7560,
      "cLE": 7561,
      "ced": 7562,
      "cisco": 7563,
      "dG": 7564,
      "fs": 7565,
      "feld": 7566,
      "gets": 7567,
      "hite": 7568,
      "kN": 7569,
      "kn": 7570,
      "lass": 7571,
      "mall": 7572,
      "nAC": 7573,
      "oS": 7574,
      "sur": 7575,
      "zz": 7576,
      "Ġ$": 7577,
      "ĠIC": 7578,
      "Ġ77": 7579,
      "Ġ53": 7580,
      "Ġ1950": 7581,
      "Ġass": 7582,
      "Ġib": 7583,
      "Ġ1947": 7584,
      "Ġ1956": 7585,
      "Ġ1928": 7586,
      "8264": 7587,
      "xaeEP": 7588,
      "xabSF": 7589,
      "8945": 7590,
      "891946": 7591,
      "891959": 7592,
      "891951": 7593,
      "891956": 7594,
      "xaaT": 7595,
      "922011": 7596,
      "922000": 7597,
      "9515": 7598,
      "9322": 7599,
      "9324": 7600,
      "9355": 7601,
      "8520": 7602,
      "9120": 7603,
      "9150": 7604,
      "LIGHT": 7605,
      "AGM": 7606,
      "811812": 7607,
      "811814": 7608,
      "811843": 7609,
      "LES": 7610,
      "881845": 7611,
      "881852": 7612,
      "821849": 7613,
      "enberg": 7614,
      "arge": 7615,
      "ĠSat": 7616,
      "ĠSil": 7617,
      "ĠSant": 7618,
      "ĠSING": 7619,
      "ĠSaf": 7620,
      "ĠSummer": 7621,
      "1689": 7622,
      "1778": 7623,
      "ĠCR": 7624,
      "ĠCam": 7625,
      "309": 7626,
      "het": 7627,
      "ĠTransport": 7628,
      "stream": 7629,
      "ĠBB": 7630,
      "ĠBaby": 7631,
      "rep": 7632,
      "rell": 7633,
      "ĠPerson": 7634,
      "ĠFAN": 7635,
      "acter": 7636,
      "881632": 7637,
      "ols": 7638,
      "ilos": 7639,
      "etooth": 7640,
      "ĠRoll": 7641,
      "ĠDC": 7642,
      "ĠDis": 7643,
      "ĠLA": 7644,
      "chan": 7645,
      "Ġtype": 7646,
      "ĠHo": 7647,
      "ĠHard": 7648,
      "ĠHALL": 7649,
      "329": 7650,
      "ĠIMP": 7651,
      "ĠWant": 7652,
      "iginal": 7653,
      "CDAV": 7654,
      "659": 7655,
      "adow": 7656,
      "irgin": 7657,
      "8257": 7658,
      "tha": 7659,
      "imo": 7660,
      "6400": 7661,
      "Ġcent": 7662,
      "Ġcount": 7663,
      "Ġpass": 7664,
      "INI": 7665,
      "ISI": 7666,
      "TOTO": 7667,
      "TOKIO": 7668,
      "abe": 7669,
      "ROW": 7670,
      "elly": 7671,
      "REW": 7672,
      "REET": 7673,
      "ASKA": 7674,
      "ifty": 7675,
      "iffer": 7676,
      "phy": 7677,
      "alling": 7678,
      "cBe": 7679,
      "ĠĠĠĠĠĠĠĠĠĠĠĠĠĠĠ": 7680,
      "SUG": 7681,
      "xaeAFC": 7682,
      "nMac": 7683,
      "Ġhad": 7684,
      "xecutive": 7685,
      "xaeNPB": 7686,
      "ĠProte": 7687,
      "CPRM": 7688,
      "EMD": 7689,
      "IGN": 7690,
      "..._": 7691,
      "aza": 7692,
      "sson": 7693,
      "xaeGK": 7694,
      "xafSD": 7695,
      "cHe": 7696,
      "ierra": 7697,
      "nDNA": 7698,
      "Alice": 7699,
      "xafBBC": 7700,
      "anni": 7701,
      "xaeRPG": 7702,
      "TEE": 7703,
      "UCK": 7704,
      "Arthur": 7705,
      "itions": 7706,
      "ashington": 7707,
      "ĠHeaven": 7708,
      "YSX": 7709,
      "AIO": 7710,
      "ĠConcert": 7711,
      "rison": 7712,
      "881833": 7713,
      "ĠCommission": 7714,
      "duct": 7715,
      "alker": 7716,
      "ufact": 7717,
      "lexRay": 7718,
      "881504": 7719,
      "ajor": 7720,
      "VVF": 7721,
      "EVER": 7722,
      "untu": 7723,
      "ĠReview": 7724,
      "ehicle": 7725,
      "ĠTrack": 7726,
      "lements": 7727,
      "venue": 7728,
      "Harry": 7729,
      "ĠWilhelm": 7730,
      "ĠPortable": 7731,
      "ATTLE": 7732,
      "ĠIDOL": 7733,
      "ĠCOLLECTION": 7734,
      "ĠHoldings": 7735,
      "Ġpresents": 7736,
      "281": 7737,
      "347": 7738,
      "5300": 7739,
      "61979": 7740,
      "61973": 7741,
      "61948": 7742,
      "783": 7743,
      "72004": 7744,
      "71970": 7745,
      "Att": 7746,
      "BRA": 7747,
      "Cr": 7748,
      "Cap": 7749,
      "City": 7750,
      "EH": 7751,
      "ETA": 7752,
      "FO": 7753,
      "FNN": 7754,
      "IVE": 7755,
      "JAL": 7756,
      "Karl": 7757,
      "Line": 7758,
      "LMP": 7759,
      "Love": 7760,
      "MAR": 7761,
      "Mod": 7762,
      "MEN": 7763,
      "Mont": 7764,
      "MIDI": 7765,
      "OKO": 7766,
      "Ros": 7767,
      "Sol": 7768,
      "Tur": 7769,
      "Trans": 7770,
      "UU": 7771,
      "WTO": 7772,
      "ZY": 7773,
      "bZ": 7774,
      "bPC": 7775,
      "bWindows": 7776,
      "cre": 7777,
      "cel": 7778,
      "file": 7779,
      "fEF": 7780,
      "ga": 7781,
      "gu": 7782,
      "gem": 7783,
      "iS": 7784,
      "name": 7785,
      "pol": 7786,
      "vin": 7787,
      "von": 7788,
      "view": 7789,
      "|\\": 7790,
      "ĠNEW": 7791,
      "Ġ58": 7792,
      "Ġ1951": 7793,
      "Ġ1936": 7794,
      "Ġ1938": 7795,
      "81000": 7796,
      "8271": 7797,
      "82800": 7798,
      "xabQ": 7799,
      "xbcG": 7800,
      "9725": 7801,
      "9724": 7802,
      "891931": 7803,
      "xbbII": 7804,
      "xbbCM": 7805,
      "xbbAV": 7806,
      "84160": 7807,
      "9227": 7808,
      "xbdCD": 7809,
      "9348": 7810,
      "9357": 7811,
      "9612": 7812,
      "xacSF": 7813,
      "STL": 7814,
      "AGA": 7815,
      "2021": 7816,
      "TIVE": 7817,
      "811801": 7818,
      "881843": 7819,
      "881846": 7820,
      "881806": 7821,
      "arum": 7822,
      "arry": 7823,
      "8839": 7824,
      "ĠSO": 7825,
      "ĠSex": 7826,
      "1648": 7827,
      "ĠCross": 7828,
      "ĠCivil": 7829,
      "ĠMad": 7830,
      "ĠAfr": 7831,
      "ĠAvi": 7832,
      "lease": 7833,
      "ĠTRI": 7834,
      "std": 7835,
      "ĠBa": 7836,
      "rea": 7837,
      "881596": 7838,
      "881594": 7839,
      "881572": 7840,
      "ĠPhys": 7841,
      "407": 7842,
      "881616": 7843,
      "olas": 7844,
      "ils": 7845,
      "ĠRT": 7846,
      "ĠRoss": 7847,
      "ĠDr": 7848,
      "ĠDigital": 7849,
      "ĠLouis": 7850,
      "891914": 7851,
      "omon": 7852,
      "cher": 7853,
      "88400": 7854,
      "ĠHand": 7855,
      "881180": 7856,
      "881185": 7857,
      "ĠEcon": 7858,
      "ĠWood": 7859,
      "ĠWomen": 7860,
      "uno": 7861,
      "raham": 7862,
      "61000": 7863,
      "ĠName": 7864,
      "otte": 7865,
      "BSS": 7866,
      "IIA": 7867,
      "rial": 7868,
      "riff": 7869,
      "Ġsup": 7870,
      "8253": 7871,
      "ived": 7872,
      "ATER": 7873,
      "367": 7874,
      "oder": 7875,
      "abb": 7876,
      "abc": 7877,
      "APPY": 7878,
      "Ġlist": 7879,
      "Ġlaw": 7880,
      "ĠInst": 7881,
      "IDA": 7882,
      "cSp": 7883,
      "ADO": 7884,
      "Ġauf": 7885,
      "ourse": 7886,
      "haw": 7887,
      "Ġgen": 7888,
      "teen": 7889,
      "text": 7890,
      "UNI": 7891,
      "xaeNo": 7892,
      "iba": 7893,
      "RCC": 7894,
      "CPR": 7895,
      "anga": 7896,
      "Ġ101": 7897,
      "Ġeffect": 7898,
      "IRST": 7899,
      "IRTH": 7900,
      "awn": 7901,
      "cLove": 7902,
      "comp": 7903,
      "82009": 7904,
      "Ġrec": 7905,
      "oster": 7906,
      "xafJava": 7907,
      "xabCoA": 7908,
      "ĠThat": 7909,
      "xabMLB": 7910,
      "Ġrpm": 7911,
      "Unicode": 7912,
      "ultip": 7913,
      "nWWE": 7914,
      "ĠColl": 7915,
      "ĠColor": 7916,
      "ashi": 7917,
      "organ": 7918,
      "ĠEdward": 7919,
      "ootball": 7920,
      "811831": 7921,
      "811834": 7922,
      "ports": 7923,
      "ĠWars": 7924,
      "NetWare": 7925,
      "Team": 7926,
      "erfume": 7927,
      "ischer": 7928,
      "ĠSecond": 7929,
      "881333": 7930,
      "ombat": 7931,
      "White": 7932,
      "ĠMedicine": 7933,
      "Japanese": 7934,
      "ĠAsia": 7935,
      "vention": 7936,
      "ĠEvolution": 7937,
      "ĠMotor": 7938,
      "ĠROAD": 7939,
      "ĠFundamental": 7940,
      "eLaLa": 7941,
      "rederick": 7942,
      "eLOST": 7943,
      "Youtube": 7944,
      "1823": 7945,
      "296": 7946,
      "271": 7947,
      "383": 7948,
      "388": 7949,
      "384": 7950,
      "344": 7951,
      "4200": 7952,
      "675": 7953,
      "661": 7954,
      "61983": 7955,
      "61963": 7956,
      "795": 7957,
      "72017": 7958,
      "72001": 7959,
      "71998": 7960,
      "Best": 7961,
      "CSS": 7962,
      "CIS": 7963,
      "Dom": 7964,
      "Ern": 7965,
      "GSA": 7966,
      "Gran": 7967,
      "Great": 7968,
      "LASH": 7969,
      "Mer": 7970,
      "Mine": 7971,
      "MUSIC": 7972,
      "PLE": 7973,
      "RON": 7974,
      "Sche": 7975,
      "Ter": 7976,
      "ULL": 7977,
      "WO": 7978,
      "WIN": 7979,
      "bot": 7980,
      "cIC": 7981,
      "cKO": 7982,
      "eit": 7983,
      "ech": 7984,
      "eRE": 7985,
      "eIn": 7986,
      "gi": 7987,
      "lie": 7988,
      "make": 7989,
      "mRNA": 7990,
      "nh": 7991,
      "nis": 7992,
      "nNA": 7993,
      "oire": 7994,
      "rup": 7995,
      "si": 7996,
      "sw": 7997,
      "top": 7998,
      "uen": 7999
    },
    "merges": [
      [
        "x",
        "e"
      ],
      [
        "x",
        "a"
      ],
      [
        "8",
        "1"
      ],
      [
        "x",
        "b"
      ],
      [
        "8",
        "2"
      ],
      [
        "8",
        "3"
      ],
      [
        "8",
        "0"
      ],
      [
        "xa",
        "e"
      ],
      [
        "xa",
        "b"
      ],
      [
        "xb",
        "c"
      ],
      [
        "8",
        "8"
      ],
      [
        "9",
        "7"
      ],
      [
        "xa",
        "f"
      ],
      [
        "8",
        "9"
      ],
      [
        "xa",
        "a"
      ],
      [
        "xb",
        "b"
      ],
      [
        "8",
        "4"
      ],
      [
        "xb",
        "a"
      ],
      [
        "9",
        "2"
      ],
      [
        "xa",
        "d"
      ],
      [
        "9",
        "5"
      ],
      [
        "9",
        "9"
      ],
      [
        "xb",
        "d"
      ],
      [
        "9",
        "3"
      ],
      [
        "xb",
        "e"
      ],
      [
        "9",
        "6"
      ],
      [
        "9",
        "0"
      ],
      [
        "8",
        "5"
      ],
      [
        "9",
        "4"
      ],
      [
        "8",
        "6"
      ],
      [
        "xa",
        "c"
      ],
      [
        "xb",
        "f"
      ],
      [
        "8",
        "7"
      ],
      [
        "A",
        "R"
      ],
      [
        "9",
        "1"
      ],
      [
        "xe",
        "f"
      ],
      [
        "_",
        "\\"
      ],
      [
        "N",
        "E"
      ],
      [
        "9",
        "8"
      ],
      [
        "AR",
        "T"
      ],
      [
        "S",
        "T"
      ],
      [
        "ST",
        "ART"
      ],
      [
        "L",
        "I"
      ],
      [
        "NE",
        "W"
      ],
      [
        "LI",
        "NE"
      ],
      [
        "NEW",
        "LINE"
      ],
      [
        "R",
        "A"
      ],
      [
        "A",
        "G"
      ],
      [
        "P",
        "H"
      ],
      [
        "P",
        "AR"
      ],
      [
        "RA",
        "PH"
      ],
      [
        "PAR",
        "AG"
      ],
      [
        "PARAG",
        "RAPH"
      ],
      [
        "2",
        "0"
      ],
      [
        "O",
        "N"
      ],
      [
        "S",
        "E"
      ],
      [
        "T",
        "I"
      ],
      [
        "TI",
        "ON"
      ],
      [
        "C",
        "TION"
      ],
      [
        "SE",
        "CTION"
      ],
      [
        "Ġ",
        "\\"
      ],
      [
        "81",
        "1"
      ],
      [
        "I",
        "C"
      ],
      [
        "20",
        "1"
      ],
      [
        "Ġ",
        "b"
      ],
      [
        "L",
        "E"
      ],
      [
        "20",
        "0"
      ],
      [
        "IC",
        "LE"
      ],
      [
        "č",
        "Ċ"
      ],
      [
        "ART",
        "ICLE"
      ],
      [
        "'",
        "\\"
      ],
      [
        "8",
        "81"
      ],
      [
        "82",
        "1"
      ],
      [
        "0",
        "0"
      ],
      [
        "4",
        "1"
      ],
      [
        "8",
        "82"
      ],
      [
        ")",
        "\\"
      ],
      [
        "x",
        "c"
      ],
      [
        "Ġ",
        "("
      ],
      [
        "e",
        "r"
      ],
      [
        "1",
        "9"
      ],
      [
        "1",
        "0"
      ],
      [
        "x",
        "d"
      ],
      [
        "i",
        "n"
      ],
      [
        "Ġ",
        "-"
      ],
      [
        "o",
        "n"
      ],
      [
        "a",
        "n"
      ],
      [
        "1",
        "2"
      ],
      [
        "e",
        "n"
      ],
      [
        "1",
        "1"
      ],
      [
        "4",
        "3"
      ],
      [
        "81",
        "200"
      ],
      [
        "4",
        "4"
      ],
      [
        "o",
        "r"
      ],
      [
        "a",
        "r"
      ],
      [
        "81",
        "201"
      ],
      [
        "1",
        "5"
      ],
      [
        "4",
        "5"
      ],
      [
        "a",
        "l"
      ],
      [
        "8",
        "83"
      ],
      [
        "a",
        "t"
      ],
      [
        "81",
        "2"
      ],
      [
        "4",
        "7"
      ],
      [
        "1",
        "99"
      ],
      [
        "Ġ",
        "S"
      ],
      [
        "4",
        "2"
      ],
      [
        "4",
        "6"
      ],
      [
        "Ġ",
        "Ġ"
      ],
      [
        "82",
        "200"
      ],
      [
        "1",
        "6"
      ],
      [
        "1",
        "7"
      ],
      [
        "e",
        "s"
      ],
      [
        "82",
        "201"
      ],
      [
        "1",
        "3"
      ],
      [
        "1",
        "97"
      ],
      [
        "4",
        "9"
      ],
      [
        "4",
        "8"
      ],
      [
        "00",
        "0"
      ],
      [
        "Ġ",
        "C"
      ],
      [
        "3",
        "0"
      ],
      [
        "i",
        "c"
      ],
      [
        "41",
        "0"
      ],
      [
        "i",
        "s"
      ],
      [
        "i",
        "t"
      ],
      [
        "5",
        "0"
      ],
      [
        "(",
        "\\"
      ],
      [
        "41",
        "2"
      ],
      [
        "Ġ(",
        "\\"
      ],
      [
        "1",
        "96"
      ],
      [
        "h",
        "e"
      ],
      [
        "811",
        "9"
      ],
      [
        "Ġ",
        "M"
      ],
      [
        "1",
        "94"
      ],
      [
        "Ġ",
        "A"
      ],
      [
        "41",
        "1"
      ],
      [
        "81",
        "3"
      ],
      [
        "k",
        "m"
      ],
      [
        "1",
        "4"
      ],
      [
        "l",
        "e"
      ],
      [
        "Ġ",
        "T"
      ],
      [
        "\"",
        "\\"
      ],
      [
        "%",
        "\\"
      ],
      [
        "i",
        "on"
      ],
      [
        "s",
        "t"
      ],
      [
        "1",
        "95"
      ],
      [
        "Ġ",
        "B"
      ],
      [
        "r",
        "e"
      ],
      [
        "1",
        "8"
      ],
      [
        "881",
        "5"
      ],
      [
        "Ġ",
        "P"
      ],
      [
        "e",
        "l"
      ],
      [
        "2",
        "2"
      ],
      [
        "!",
        "\\"
      ],
      [
        "821",
        "9"
      ],
      [
        "4",
        "0"
      ],
      [
        "r",
        "o"
      ],
      [
        "2",
        "5"
      ],
      [
        "Ġ",
        "F"
      ],
      [
        "882",
        "0"
      ],
      [
        "1",
        "00"
      ],
      [
        "a",
        "c"
      ],
      [
        "881",
        "6"
      ],
      [
        "7",
        "2"
      ],
      [
        "o",
        "l"
      ],
      [
        "1",
        "93"
      ],
      [
        "i",
        "l"
      ],
      [
        "e",
        "t"
      ],
      [
        "Ġ",
        "R"
      ],
      [
        "o",
        "u"
      ],
      [
        "Ġ",
        "D"
      ],
      [
        "F",
        "C"
      ],
      [
        "2",
        "1"
      ],
      [
        "a",
        "m"
      ],
      [
        "811",
        "99"
      ],
      [
        "Ġ",
        "L"
      ],
      [
        "811",
        "97"
      ],
      [
        "2",
        "3"
      ],
      [
        "89",
        "1"
      ],
      [
        "201",
        "0"
      ],
      [
        "6",
        "0"
      ],
      [
        "Ġ",
        "G"
      ],
      [
        "o",
        "m"
      ],
      [
        "c",
        "h"
      ],
      [
        "88",
        "5"
      ],
      [
        "Ġ",
        "t"
      ],
      [
        "-",
        "\\"
      ],
      [
        "a",
        "s"
      ],
      [
        "o",
        "f"
      ],
      [
        "881",
        "7"
      ],
      [
        "88",
        "7"
      ],
      [
        "201",
        "2"
      ],
      [
        "201",
        "1"
      ],
      [
        "200",
        "9"
      ],
      [
        "88",
        "4"
      ],
      [
        "200",
        "8"
      ],
      [
        "201",
        "4"
      ],
      [
        "d",
        "e"
      ],
      [
        "200",
        "7"
      ],
      [
        "in",
        "g"
      ],
      [
        "81",
        "5"
      ],
      [
        "201",
        "3"
      ],
      [
        "81",
        "4"
      ],
      [
        "88",
        "6"
      ],
      [
        "89",
        "3"
      ],
      [
        "6",
        "2"
      ],
      [
        "811",
        "96"
      ],
      [
        "82",
        "2"
      ],
      [
        "201",
        "5"
      ],
      [
        "Ġ",
        "H"
      ],
      [
        "3",
        "2"
      ],
      [
        "881",
        "9"
      ],
      [
        "1",
        "92"
      ],
      [
        "201",
        "6"
      ],
      [
        "m",
        "m"
      ],
      [
        "Ġ",
        "I"
      ],
      [
        "881",
        "0"
      ],
      [
        "200",
        "6"
      ],
      [
        "821",
        "99"
      ],
      [
        "u",
        "s"
      ],
      [
        "8",
        "811"
      ],
      [
        "Ġ",
        "E"
      ],
      [
        "Ġ",
        "W"
      ],
      [
        "811",
        "94"
      ],
      [
        "xc",
        "e"
      ],
      [
        "3",
        "5"
      ],
      [
        "Ġ",
        "of"
      ],
      [
        "an",
        "d"
      ],
      [
        "201",
        "7"
      ],
      [
        "88",
        "8"
      ],
      [
        "3",
        "3"
      ],
      [
        "ĠĠ",
        "ĠĠ"
      ],
      [
        "2",
        "4"
      ],
      [
        "u",
        "n"
      ],
      [
        "200",
        "0"
      ],
      [
        "7",
        "3"
      ],
      [
        "89",
        "2"
      ],
      [
        "7",
        "5"
      ],
      [
        "821",
        "97"
      ],
      [
        "89",
        "4"
      ],
      [
        "_",
        "_"
      ],
      [
        "81",
        "6"
      ],
      [
        "811",
        "95"
      ],
      [
        "7",
        "1"
      ],
      [
        "88",
        "9"
      ],
      [
        "e",
        "d"
      ],
      [
        "r",
        "a"
      ],
      [
        "i",
        "g"
      ],
      [
        "6",
        "1"
      ],
      [
        "Ġ",
        "N"
      ],
      [
        ".",
        "\\"
      ],
      [
        "en",
        "t"
      ],
      [
        "Ġ",
        "m"
      ],
      [
        "6",
        "3"
      ],
      [
        "882",
        "5"
      ],
      [
        "883",
        "0"
      ],
      [
        "C",
        "D"
      ],
      [
        "at",
        "ion"
      ],
      [
        "881",
        "2"
      ],
      [
        "F",
        "A"
      ],
      [
        "200",
        "5"
      ],
      [
        "201",
        "8"
      ],
      [
        "7",
        "0"
      ],
      [
        "1",
        "91"
      ],
      [
        "881",
        "4"
      ],
      [
        "/",
        "\\"
      ],
      [
        "o",
        "t"
      ],
      [
        "c",
        "m"
      ],
      [
        "B",
        "S"
      ],
      [
        "Ġ",
        "O"
      ],
      [
        "881",
        "3"
      ],
      [
        "882",
        "8"
      ],
      [
        "82",
        "3"
      ],
      [
        "o",
        "w"
      ],
      [
        "t",
        "er"
      ],
      [
        "u",
        "r"
      ],
      [
        "821",
        "96"
      ],
      [
        "821",
        "94"
      ],
      [
        "8",
        "821"
      ],
      [
        "I",
        "I"
      ],
      [
        "881",
        "8"
      ],
      [
        "811",
        "93"
      ],
      [
        "882",
        "3"
      ],
      [
        "Ġ",
        "1"
      ],
      [
        "6",
        "5"
      ],
      [
        "N",
        "A"
      ],
      [
        "3",
        "1"
      ],
      [
        "200",
        "4"
      ],
      [
        "882",
        "6"
      ],
      [
        "81",
        "7"
      ],
      [
        "882",
        "9"
      ],
      [
        "882",
        "7"
      ],
      [
        "89",
        "5"
      ],
      [
        "r",
        "i"
      ],
      [
        "2",
        "7"
      ],
      [
        "a",
        "d"
      ],
      [
        "882",
        "2"
      ],
      [
        "a",
        "y"
      ],
      [
        "882",
        "4"
      ],
      [
        "2",
        "6"
      ],
      [
        "883",
        "1"
      ],
      [
        "E",
        "R"
      ],
      [
        "Ġ",
        "s"
      ],
      [
        "N",
        "H"
      ],
      [
        "811",
        "0"
      ],
      [
        "A",
        "N"
      ],
      [
        "i",
        "r"
      ],
      [
        "u",
        "t"
      ],
      [
        "Ġ",
        "d"
      ],
      [
        "82",
        "5"
      ],
      [
        "821",
        "95"
      ],
      [
        "i",
        "v"
      ],
      [
        "Ġ",
        "V"
      ],
      [
        "200",
        "3"
      ],
      [
        "S",
        "S"
      ],
      [
        "1",
        "90"
      ],
      [
        "Ġ",
        "f"
      ],
      [
        "89",
        "6"
      ],
      [
        "3",
        "4"
      ],
      [
        "V",
        "D"
      ],
      [
        "u",
        "m"
      ],
      [
        "o",
        "s"
      ],
      [
        "a",
        "g"
      ],
      [
        "Ġ",
        "J"
      ],
      [
        "c",
        "t"
      ],
      [
        "5",
        "00"
      ],
      [
        "811",
        "92"
      ],
      [
        "t",
        "h"
      ],
      [
        "NH",
        "K"
      ],
      [
        "81",
        "8"
      ],
      [
        "i",
        "m"
      ],
      [
        "Ġt",
        "he"
      ],
      [
        "B",
        "C"
      ],
      [
        "A",
        "T"
      ],
      [
        "84",
        "1"
      ],
      [
        "81",
        "9"
      ],
      [
        "821",
        "93"
      ],
      [
        "200",
        "2"
      ],
      [
        "J",
        "R"
      ],
      [
        "8",
        "97"
      ],
      [
        "6",
        "4"
      ],
      [
        "e",
        "m"
      ],
      [
        "T",
        "he"
      ],
      [
        "200",
        "1"
      ],
      [
        "a",
        "p"
      ],
      [
        "3",
        "6"
      ],
      [
        "C",
        "M"
      ],
      [
        "D",
        "VD"
      ],
      [
        "89",
        "8"
      ],
      [
        "7",
        "4"
      ],
      [
        "201",
        "9"
      ],
      [
        "882",
        "00"
      ],
      [
        "0",
        "1"
      ],
      [
        "Ġ",
        "c"
      ],
      [
        "Ġ",
        "K"
      ],
      [
        "7",
        "6"
      ],
      [
        "82",
        "4"
      ],
      [
        "2",
        "8"
      ],
      [
        "B",
        "A"
      ],
      [
        "89",
        "9"
      ],
      [
        "Ġ",
        "p"
      ],
      [
        "i",
        "a"
      ],
      [
        "u",
        "l"
      ],
      [
        "A",
        "A"
      ],
      [
        "199",
        "0"
      ],
      [
        "2",
        "9"
      ],
      [
        "o",
        "c"
      ],
      [
        "5",
        "5"
      ],
      [
        "821",
        "92"
      ],
      [
        "i",
        "d"
      ],
      [
        "3",
        "7"
      ],
      [
        "S",
        "A"
      ],
      [
        "n",
        "d"
      ],
      [
        "o",
        "d"
      ],
      [
        "K",
        "O"
      ],
      [
        "89",
        "10"
      ],
      [
        "o",
        "p"
      ],
      [
        "Ġ",
        "U"
      ],
      [
        "19",
        "80"
      ],
      [
        "3",
        "8"
      ],
      [
        "er",
        "s"
      ],
      [
        "c",
        "e"
      ],
      [
        "A",
        "C"
      ],
      [
        "o",
        "g"
      ],
      [
        "811",
        "2"
      ],
      [
        "ĠS",
        "t"
      ],
      [
        "I",
        "N"
      ],
      [
        "I",
        "S"
      ],
      [
        "811",
        "91"
      ],
      [
        "T",
        "O"
      ],
      [
        "7",
        "7"
      ],
      [
        "a",
        "v"
      ],
      [
        "o",
        "v"
      ],
      [
        "k",
        "g"
      ],
      [
        "Ġ",
        "km"
      ],
      [
        "84",
        "2"
      ],
      [
        "Ġ",
        "2"
      ],
      [
        "92",
        "1"
      ],
      [
        "O",
        "S"
      ],
      [
        "199",
        "9"
      ],
      [
        "0",
        "2"
      ],
      [
        "821",
        "91"
      ],
      [
        "197",
        "0"
      ],
      [
        "89",
        "12"
      ],
      [
        "i",
        "e"
      ],
      [
        "O",
        "R"
      ],
      [
        "3",
        "9"
      ],
      [
        "a",
        "b"
      ],
      [
        "Ġ",
        "in"
      ],
      [
        "80",
        "0"
      ],
      [
        "3",
        "00"
      ],
      [
        "81201",
        "0"
      ],
      [
        "81200",
        "6"
      ],
      [
        "T",
        "V"
      ],
      [
        "81200",
        "8"
      ],
      [
        "81200",
        "9"
      ],
      [
        "82",
        "7"
      ],
      [
        "81200",
        "7"
      ],
      [
        "82",
        "6"
      ],
      [
        "Ġ",
        "_"
      ],
      [
        "ar",
        "d"
      ],
      [
        "a",
        "k"
      ],
      [
        "92",
        "2"
      ],
      [
        "u",
        "b"
      ],
      [
        "S",
        "t"
      ],
      [
        "6",
        "6"
      ],
      [
        "is",
        "t"
      ],
      [
        "P",
        "C"
      ],
      [
        "in",
        "d"
      ],
      [
        "A",
        "M"
      ],
      [
        "82",
        "8"
      ],
      [
        "&",
        "\\"
      ],
      [
        "811",
        "90"
      ],
      [
        "5",
        "1"
      ],
      [
        "P",
        "S"
      ],
      [
        "81201",
        "1"
      ],
      [
        "199",
        "8"
      ],
      [
        "il",
        "l"
      ],
      [
        "821",
        "0"
      ],
      [
        "h",
        "t"
      ],
      [
        "R",
        "O"
      ],
      [
        "el",
        "l"
      ],
      [
        "es",
        "t"
      ],
      [
        "Ġ",
        "3"
      ],
      [
        "811",
        "1"
      ],
      [
        "199",
        "6"
      ],
      [
        "19",
        "97"
      ],
      [
        "in",
        "e"
      ],
      [
        "5",
        "2"
      ],
      [
        "811",
        "7"
      ],
      [
        "A",
        "P"
      ],
      [
        "81201",
        "2"
      ],
      [
        "xae",
        "M"
      ],
      [
        "Ġ",
        "and"
      ],
      [
        "19",
        "95"
      ],
      [
        "89",
        "11"
      ],
      [
        "1",
        "87"
      ],
      [
        "es",
        "s"
      ],
      [
        "Ġ",
        "v"
      ],
      [
        "811",
        "6"
      ],
      [
        "R",
        "E"
      ],
      [
        "Ġ",
        "/"
      ],
      [
        "82",
        "9"
      ],
      [
        "H",
        "E"
      ],
      [
        "n",
        "e"
      ],
      [
        "81200",
        "5"
      ],
      [
        "84",
        "3"
      ],
      [
        "Ġ",
        "l"
      ],
      [
        "A",
        "S"
      ],
      [
        "g",
        "e"
      ],
      [
        "ĠI",
        "n"
      ],
      [
        "4",
        "00"
      ],
      [
        "Ġ",
        "de"
      ],
      [
        "G",
        "P"
      ],
      [
        "81201",
        "4"
      ],
      [
        "82201",
        "0"
      ],
      [
        "e",
        "c"
      ],
      [
        "V",
        "E"
      ],
      [
        "U",
        "E"
      ],
      [
        "199",
        "4"
      ],
      [
        "196",
        "0"
      ],
      [
        "S",
        "C"
      ],
      [
        "T",
        "BS"
      ],
      [
        "5",
        "4"
      ],
      [
        "19",
        "92"
      ],
      [
        "i",
        "f"
      ],
      [
        "81",
        "20"
      ],
      [
        "p",
        "h"
      ],
      [
        "82200",
        "7"
      ],
      [
        "199",
        "3"
      ],
      [
        "82200",
        "9"
      ],
      [
        "81201",
        "3"
      ],
      [
        "5",
        "3"
      ],
      [
        "I",
        "D"
      ],
      [
        "82200",
        "8"
      ],
      [
        "U",
        "S"
      ],
      [
        "o",
        "b"
      ],
      [
        "c",
        "M"
      ],
      [
        "xc",
        "f"
      ],
      [
        "e",
        "b"
      ],
      [
        "811",
        "5"
      ],
      [
        "81200",
        "0"
      ],
      [
        "1",
        "86"
      ],
      [
        "6",
        "7"
      ],
      [
        "82200",
        "6"
      ],
      [
        "19",
        "89"
      ],
      [
        "81",
        "0"
      ],
      [
        "I",
        "T"
      ],
      [
        "an",
        "t"
      ],
      [
        "5",
        "8"
      ],
      [
        "c",
        "S"
      ],
      [
        "199",
        "1"
      ],
      [
        "194",
        "5"
      ],
      [
        "al",
        "l"
      ],
      [
        "u",
        "e"
      ],
      [
        "Ġ",
        "w"
      ],
      [
        "81201",
        "5"
      ],
      [
        "7",
        "8"
      ],
      [
        "84",
        "5"
      ],
      [
        "ow",
        "s"
      ],
      [
        "821",
        "2"
      ],
      [
        "u",
        "d"
      ],
      [
        "82201",
        "2"
      ],
      [
        "ig",
        "ht"
      ],
      [
        "Ġ",
        "n"
      ],
      [
        "82201",
        "1"
      ],
      [
        "I",
        "P"
      ],
      [
        "5",
        "6"
      ],
      [
        "E",
        "C"
      ],
      [
        "A",
        "L"
      ],
      [
        "821",
        "90"
      ],
      [
        "Ġ",
        "\""
      ],
      [
        "81200",
        "4"
      ],
      [
        "O",
        "M"
      ],
      [
        "i",
        "p"
      ],
      [
        "N",
        "T"
      ],
      [
        "it",
        "y"
      ],
      [
        "A",
        "D"
      ],
      [
        "821",
        "7"
      ],
      [
        "ar",
        "t"
      ],
      [
        "15",
        "0"
      ],
      [
        "Ġ",
        "6"
      ],
      [
        "i",
        "o"
      ],
      [
        "u",
        "p"
      ],
      [
        "82201",
        "3"
      ],
      [
        "81201",
        "6"
      ],
      [
        "0",
        "3"
      ],
      [
        "e",
        "v"
      ],
      [
        "92",
        "3"
      ],
      [
        "19",
        "85"
      ],
      [
        "o",
        "k"
      ],
      [
        "r",
        "an"
      ],
      [
        "821",
        "1"
      ],
      [
        "at",
        "e"
      ],
      [
        "or",
        "t"
      ],
      [
        "82200",
        "5"
      ],
      [
        "c",
        "C"
      ],
      [
        "ind",
        "ows"
      ],
      [
        "ĠC",
        "h"
      ],
      [
        "Ġ",
        "Y"
      ],
      [
        "19",
        "88"
      ],
      [
        "i",
        "k"
      ],
      [
        "Ġ",
        "a"
      ],
      [
        "S",
        "P"
      ],
      [
        "19",
        "87"
      ],
      [
        "82201",
        "4"
      ],
      [
        "5",
        "7"
      ],
      [
        "195",
        "0"
      ],
      [
        "xaf",
        "A"
      ],
      [
        "ou",
        "r"
      ],
      [
        "e",
        "w"
      ],
      [
        "19",
        "86"
      ],
      [
        "81200",
        "3"
      ],
      [
        "82201",
        "5"
      ],
      [
        "xae",
        "C"
      ],
      [
        "h",
        "a"
      ],
      [
        "6",
        "8"
      ],
      [
        "O",
        "L"
      ],
      [
        "O",
        "U"
      ],
      [
        "b",
        "er"
      ],
      [
        "881",
        "97"
      ],
      [
        "Ġ",
        "="
      ],
      [
        "81201",
        "7"
      ],
      [
        "Ġ",
        "4"
      ],
      [
        "c",
        "T"
      ],
      [
        "c",
        "D"
      ],
      [
        "or",
        "d"
      ],
      [
        "c",
        "B"
      ],
      [
        "S",
        "F"
      ],
      [
        "7",
        "9"
      ],
      [
        "19",
        "84"
      ],
      [
        "84",
        "4"
      ],
      [
        "81199",
        "0"
      ],
      [
        "ĠĠĠĠ",
        "ĠĠĠĠ"
      ],
      [
        "Ġ",
        "g"
      ],
      [
        "a",
        "st"
      ],
      [
        "5",
        "9"
      ],
      [
        "iv",
        "e"
      ],
      [
        "c",
        "A"
      ],
      [
        "i",
        "an"
      ],
      [
        "!",
        "!\\"
      ],
      [
        "I",
        "FA"
      ],
      [
        "s",
        "e"
      ],
      [
        "UE",
        "FA"
      ],
      [
        "6",
        "9"
      ],
      [
        ":",
        "\\"
      ],
      [
        "f",
        "f"
      ],
      [
        "81200",
        "2"
      ],
      [
        "O",
        "C"
      ],
      [
        "I",
        "n"
      ],
      [
        "81200",
        "1"
      ],
      [
        "82200",
        "4"
      ],
      [
        "S",
        "U"
      ],
      [
        "r",
        "y"
      ],
      [
        "W",
        "indows"
      ],
      [
        "82",
        "0"
      ],
      [
        "1",
        "000"
      ],
      [
        "t",
        "e"
      ],
      [
        "c",
        "c"
      ],
      [
        "84",
        "6"
      ],
      [
        "881",
        "86"
      ],
      [
        "Ġf",
        "or"
      ],
      [
        "\\",
        "'"
      ],
      [
        "197",
        "9"
      ],
      [
        "19",
        "82"
      ],
      [
        "B",
        "O"
      ],
      [
        "W",
        "A"
      ],
      [
        "87",
        "5"
      ],
      [
        "a",
        "in"
      ],
      [
        "F",
        "M"
      ],
      [
        "xaf",
        "M"
      ],
      [
        "I",
        "M"
      ],
      [
        "xae",
        "A"
      ],
      [
        "82201",
        "7"
      ],
      [
        "B",
        "M"
      ],
      [
        "82201",
        "6"
      ],
      [
        "197",
        "3"
      ],
      [
        "197",
        "8"
      ],
      [
        "E",
        "N"
      ],
      [
        "196",
        "8"
      ],
      [
        "81201",
        "8"
      ],
      [
        "?",
        "\\"
      ],
      [
        "P",
        "G"
      ],
      [
        "19",
        "81"
      ],
      [
        "197",
        "5"
      ],
      [
        "e",
        "p"
      ],
      [
        "81197",
        "0"
      ],
      [
        "on",
        "e"
      ],
      [
        "T",
        "A"
      ],
      [
        "87",
        "2"
      ],
      [
        "q",
        "u"
      ],
      [
        "881",
        "99"
      ],
      [
        "19",
        "83"
      ],
      [
        "Ġ",
        "X"
      ],
      [
        "ac",
        "k"
      ],
      [
        "8119",
        "80"
      ],
      [
        "197",
        "2"
      ],
      [
        "811",
        "8"
      ],
      [
        "1",
        "85"
      ],
      [
        "196",
        "9"
      ],
      [
        "197",
        "4"
      ],
      [
        "'",
        "s"
      ],
      [
        "821",
        "6"
      ],
      [
        "82200",
        "0"
      ],
      [
        "G",
        "M"
      ],
      [
        "86",
        "1"
      ],
      [
        "F",
        "L"
      ],
      [
        "n",
        "M"
      ],
      [
        "D",
        "S"
      ],
      [
        "81199",
        "9"
      ],
      [
        "92",
        "4"
      ],
      [
        "Ġ",
        "h"
      ],
      [
        "881",
        "96"
      ],
      [
        "-",
        "-"
      ],
      [
        "197",
        "7"
      ],
      [
        "7",
        "10"
      ],
      [
        "ic",
        "e"
      ],
      [
        "197",
        "6"
      ],
      [
        "e",
        "g"
      ],
      [
        "194",
        "0"
      ],
      [
        "194",
        "4"
      ],
      [
        "87",
        "3"
      ],
      [
        "xe",
        "c"
      ],
      [
        "a",
        "u"
      ],
      [
        "821",
        "5"
      ],
      [
        "Ġ",
        "&"
      ],
      [
        "97",
        "2"
      ],
      [
        "I",
        "A"
      ],
      [
        "U",
        "N"
      ],
      [
        "Ġ",
        "5"
      ],
      [
        "O",
        "W"
      ],
      [
        "ic",
        "h"
      ],
      [
        "6",
        "00"
      ],
      [
        "c",
        "G"
      ],
      [
        "196",
        "7"
      ],
      [
        "as",
        "s"
      ],
      [
        "C",
        "h"
      ],
      [
        "T",
        "R"
      ],
      [
        "ĠĠ",
        "Ġ"
      ],
      [
        "xae",
        "B"
      ],
      [
        "E",
        "D"
      ],
      [
        "xae",
        "N"
      ],
      [
        "811",
        "3"
      ],
      [
        "89",
        "0"
      ],
      [
        "82200",
        "3"
      ],
      [
        "ĠT",
        "he"
      ],
      [
        "en",
        "d"
      ],
      [
        "ĠC",
        "om"
      ],
      [
        "197",
        "1"
      ],
      [
        "xae",
        "F"
      ],
      [
        "i",
        "b"
      ],
      [
        "0",
        "5"
      ],
      [
        "U",
        "FC"
      ],
      [
        "m",
        "an"
      ],
      [
        "xae",
        "P"
      ],
      [
        "84",
        "7"
      ],
      [
        "196",
        "4"
      ],
      [
        "R",
        "C"
      ],
      [
        "93",
        "1"
      ],
      [
        "p",
        "er"
      ],
      [
        "ĠP",
        "ro"
      ],
      [
        "C",
        "P"
      ],
      [
        "E",
        "M"
      ],
      [
        "in",
        "t"
      ],
      [
        "or",
        "e"
      ],
      [
        "e",
        "ct"
      ],
      [
        "#",
        "\\"
      ],
      [
        "a",
        "h"
      ],
      [
        "I",
        "G"
      ],
      [
        "l",
        "d"
      ],
      [
        "0",
        "4"
      ],
      [
        "c",
        "F"
      ],
      [
        "O",
        "P"
      ],
      [
        "82201",
        "8"
      ],
      [
        "xae",
        "D"
      ],
      [
        "Ġ",
        "k"
      ],
      [
        "an",
        "g"
      ],
      [
        "+",
        "\\"
      ],
      [
        "W",
        "E"
      ],
      [
        ".",
        "."
      ],
      [
        "a",
        "z"
      ],
      [
        "194",
        "3"
      ],
      [
        "Ġ",
        "0"
      ],
      [
        "84",
        "8"
      ],
      [
        "xae",
        "S"
      ],
      [
        "82200",
        "2"
      ],
      [
        "82199",
        "0"
      ],
      [
        "i",
        "re"
      ],
      [
        "c",
        "P"
      ],
      [
        "u",
        "re"
      ],
      [
        "v",
        "er"
      ],
      [
        "194",
        "1"
      ],
      [
        "en",
        "s"
      ],
      [
        "84",
        "10"
      ],
      [
        "Ġ",
        "10"
      ],
      [
        "Ġ",
        "e"
      ],
      [
        "A",
        "V"
      ],
      [
        "e",
        "T"
      ],
      [
        "e",
        "S"
      ],
      [
        "i",
        "al"
      ],
      [
        "81199",
        "8"
      ],
      [
        "l",
        "y"
      ],
      [
        "196",
        "5"
      ],
      [
        "ation",
        "al"
      ],
      [
        ")",
        "_"
      ],
      [
        "u",
        "st"
      ],
      [
        "0",
        "7"
      ],
      [
        "I",
        "R"
      ],
      [
        "i",
        "de"
      ],
      [
        "on",
        "t"
      ],
      [
        "82200",
        "1"
      ],
      [
        "i",
        "z"
      ],
      [
        "Ġ",
        "7"
      ],
      [
        "o",
        "h"
      ],
      [
        "87",
        "4"
      ],
      [
        "8119",
        "97"
      ],
      [
        "93",
        "2"
      ],
      [
        "D",
        "D"
      ],
      [
        "e",
        "M"
      ],
      [
        "196",
        "6"
      ],
      [
        "on",
        "d"
      ],
      [
        "Ġt",
        "o"
      ],
      [
        "m",
        "ent"
      ],
      [
        "n",
        "t"
      ],
      [
        "194",
        "6"
      ],
      [
        "un",
        "d"
      ],
      [
        "L",
        "B"
      ],
      [
        "196",
        "3"
      ],
      [
        "i",
        "es"
      ],
      [
        "n",
        "g"
      ],
      [
        "s",
        "s"
      ],
      [
        "xae",
        "J"
      ],
      [
        "195",
        "8"
      ],
      [
        "h",
        "er"
      ],
      [
        "81196",
        "0"
      ],
      [
        "l",
        "l"
      ],
      [
        "90",
        "0"
      ],
      [
        "D",
        "A"
      ],
      [
        "193",
        "0"
      ],
      [
        "1",
        "80"
      ],
      [
        "C",
        "E"
      ],
      [
        "=",
        "\\"
      ],
      [
        "o",
        "y"
      ],
      [
        "194",
        "2"
      ],
      [
        "97",
        "1"
      ],
      [
        "8219",
        "80"
      ],
      [
        "oc",
        "k"
      ],
      [
        "3",
        "10"
      ],
      [
        "xae",
        "G"
      ],
      [
        "xaf",
        "C"
      ],
      [
        "ag",
        "e"
      ],
      [
        "II",
        "I"
      ],
      [
        "82199",
        "9"
      ],
      [
        "O",
        "K"
      ],
      [
        "ar",
        "y"
      ],
      [
        "A",
        "K"
      ],
      [
        "r",
        "u"
      ],
      [
        "L",
        "A"
      ],
      [
        "f",
        "t"
      ],
      [
        "w",
        "it"
      ],
      [
        "ĠA",
        "r"
      ],
      [
        "81199",
        "4"
      ],
      [
        "b",
        "o"
      ],
      [
        "ac",
        "e"
      ],
      [
        "87",
        "1"
      ],
      [
        "196",
        "2"
      ],
      [
        "8119",
        "92"
      ],
      [
        "8119",
        "95"
      ],
      [
        "p",
        "e"
      ],
      [
        "196",
        "1"
      ],
      [
        "]",
        "\\"
      ],
      [
        "E",
        "T"
      ],
      [
        "81199",
        "6"
      ],
      [
        "1",
        "83"
      ],
      [
        "is",
        "h"
      ],
      [
        "811",
        "4"
      ],
      [
        "M",
        "V"
      ],
      [
        "l",
        "ay"
      ],
      [
        "AA",
        "A"
      ],
      [
        "ic",
        "a"
      ],
      [
        "ter",
        "n"
      ],
      [
        "ar",
        "e"
      ],
      [
        "195",
        "9"
      ],
      [
        "0",
        "8"
      ],
      [
        "ar",
        "k"
      ],
      [
        "B",
        "l"
      ],
      [
        "90",
        "2"
      ],
      [
        "H",
        "T"
      ],
      [
        "195",
        "1"
      ],
      [
        "193",
        "9"
      ],
      [
        "I",
        "V"
      ],
      [
        "e",
        "C"
      ],
      [
        "0",
        "6"
      ],
      [
        "M",
        "P"
      ],
      [
        "a",
        "w"
      ],
      [
        "194",
        "7"
      ],
      [
        "e",
        "ar"
      ],
      [
        "881",
        "95"
      ],
      [
        "195",
        "5"
      ],
      [
        "W",
        "BC"
      ],
      [
        "82",
        "20"
      ],
      [
        "xaf",
        "S"
      ],
      [
        "194",
        "8"
      ],
      [
        "c",
        "H"
      ],
      [
        "n",
        "C"
      ],
      [
        "it",
        "h"
      ],
      [
        "c",
        "L"
      ],
      [
        "n",
        "S"
      ],
      [
        "881",
        "94"
      ],
      [
        "M",
        "A"
      ],
      [
        "e",
        "y"
      ],
      [
        "82199",
        "8"
      ],
      [
        "L",
        "D"
      ],
      [
        "p",
        "r"
      ],
      [
        "195",
        "4"
      ],
      [
        "N",
        "S"
      ],
      [
        "i",
        "i"
      ],
      [
        "92",
        "5"
      ],
      [
        "i",
        "er"
      ],
      [
        "81199",
        "1"
      ],
      [
        "1",
        "20"
      ],
      [
        "M",
        "S"
      ],
      [
        "c",
        "om"
      ],
      [
        "93",
        "3"
      ],
      [
        "M",
        "C"
      ],
      [
        "2",
        "50"
      ],
      [
        "8219",
        "97"
      ],
      [
        "0",
        "9"
      ],
      [
        "1",
        "10"
      ],
      [
        "u",
        "c"
      ],
      [
        "195",
        "7"
      ],
      [
        "7",
        "00"
      ],
      [
        "or",
        "y"
      ],
      [
        "195",
        "2"
      ],
      [
        "Ġ",
        "17"
      ],
      [
        "85",
        "2"
      ],
      [
        "ac",
        "t"
      ],
      [
        "192",
        "0"
      ],
      [
        "B",
        "E"
      ],
      [
        "\\",
        "\\"
      ],
      [
        "193",
        "7"
      ],
      [
        "xae",
        "T"
      ],
      [
        "ic",
        "k"
      ],
      [
        "c",
        "N"
      ],
      [
        "M",
        "E"
      ],
      [
        "97",
        "3"
      ],
      [
        "er",
        "t"
      ],
      [
        "81199",
        "3"
      ],
      [
        "82199",
        "6"
      ],
      [
        "c",
        "W"
      ],
      [
        "194",
        "9"
      ],
      [
        "c",
        "J"
      ],
      [
        "82",
        "30"
      ],
      [
        "xae",
        "W"
      ],
      [
        "195",
        "3"
      ],
      [
        "ac",
        "h"
      ],
      [
        "O",
        "V"
      ],
      [
        "IN",
        "G"
      ],
      [
        "ĠF",
        "IFA"
      ],
      [
        "it",
        "e"
      ],
      [
        "821",
        "8"
      ],
      [
        "m",
        "er"
      ],
      [
        "81201",
        "9"
      ],
      [
        "H",
        "O"
      ],
      [
        "P",
        "h"
      ],
      [
        "ic",
        "al"
      ],
      [
        "195",
        "6"
      ],
      [
        "82197",
        "0"
      ],
      [
        "U",
        "SS"
      ],
      [
        "n",
        "D"
      ],
      [
        "92",
        "0"
      ],
      [
        "c",
        "R"
      ],
      [
        "811",
        "86"
      ],
      [
        "u",
        "g"
      ],
      [
        "s",
        "h"
      ],
      [
        "87",
        "6"
      ],
      [
        "821",
        "86"
      ],
      [
        "ov",
        "e"
      ],
      [
        "Ġ",
        "st"
      ],
      [
        "6",
        "10"
      ],
      [
        "Ġ",
        "Z"
      ],
      [
        "er",
        "n"
      ],
      [
        "8119",
        "88"
      ],
      [
        "193",
        "6"
      ],
      [
        "81",
        "30"
      ],
      [
        "A",
        "l"
      ],
      [
        "on",
        "g"
      ],
      [
        "xae",
        "CM"
      ],
      [
        "y",
        "st"
      ],
      [
        "en",
        "ce"
      ],
      [
        "80",
        "2"
      ],
      [
        "82",
        "00"
      ],
      [
        "or",
        "ld"
      ],
      [
[...]
